{
  "version": "1.0",
  "truncation": null,
  "padding": null,
  "added_tokens": [
    {
      "id": 0,
      "content": "[UNK]",
      "single_word": false,
      "lstrip": false,
      "rstrip": false,
      "normalized": false,
      "special": true
    },
    {
      "id": 1,
      "content": "<|endoftext|>",
      "single_word": false,
      "lstrip": false,
      "rstrip": false,
      "normalized": false,
      "special": true
    }
  ],
  "normalizer": null,
  "pre_tokenizer": {
    "type": "Whitespace"
  },
  "post_processor": {
    "type": "TemplateProcessing",
    "single": [
      {
        "SpecialToken": {
          "id": "<|endoftext|>",
          "type_id": 0
        }
      },
      {
        "Sequence": {
          "id": "A",
          "type_id": 0
        }
      },
      {
        "SpecialToken": {
          "id": "<|endoftext|>",
          "type_id": 0
        }
      }
    ],
    "pair": [
      {
        "Sequence": {
          "id": "A",
          "type_id": 0
        }
      },
      {
        "Sequence": {
          "id": "B",
          "type_id": 1
        }
      }
    ],
    "special_tokens": {
      "<|endoftext|>": {
        "id": "<|endoftext|>",
        "ids": [
          1
        ],
        "tokens": [
          "<|endoftext|>"
        ]
      }
    }
  },
  "decoder": {
    "type": "BPEDecoder",
    "suffix": "</w>"
  },
  "model": {
    "type": "BPE",
    "dropout": null,
    "unk_token": "[UNK]",
    "continuing_subword_prefix": null,
    "end_of_word_suffix": null,
    "fuse_unk": false,
    "byte_fallback": false,
    "ignore_merges": false,
    "vocab": {
      "[UNK]": 0,
      "<|endoftext|>": 1,
      "!": 2,
      ",": 3,
      ".": 4,
      "?": 5,
      "،": 6,
      "؍": 7,
      "ؐ": 8,
      "ؒ": 9,
      "ؓ": 10,
      "ؕ": 11,
      "؛": 12,
      "؜": 13,
      "؟": 14,
      "ء": 15,
      "آ": 16,
      "أ": 17,
      "ؤ": 18,
      "إ": 19,
      "ئ": 20,
      "ا": 21,
      "ب": 22,
      "ة": 23,
      "ت": 24,
      "ث": 25,
      "ج": 26,
      "ح": 27,
      "خ": 28,
      "د": 29,
      "ذ": 30,
      "ر": 31,
      "ز": 32,
      "س": 33,
      "ش": 34,
      "ص": 35,
      "ض": 36,
      "ط": 37,
      "ظ": 38,
      "ع": 39,
      "غ": 40,
      "ؽ": 41,
      "ؿ": 42,
      "ـ": 43,
      "ف": 44,
      "ق": 45,
      "ك": 46,
      "ل": 47,
      "م": 48,
      "ن": 49,
      "ه": 50,
      "و": 51,
      "ى": 52,
      "ي": 53,
      "ً": 54,
      "ٌ": 55,
      "ٍ": 56,
      "َ": 57,
      "ُ": 58,
      "ِ": 59,
      "ّ": 60,
      "ْ": 61,
      "ٓ": 62,
      "ٔ": 63,
      "ٕ": 64,
      "ٖ": 65,
      "ٗ": 66,
      "٘": 67,
      "ٙ": 68,
      "ٚ": 69,
      "ٛ": 70,
      "ٜ": 71,
      "٠": 72,
      "١": 73,
      "٢": 74,
      "٣": 75,
      "٤": 76,
      "٥": 77,
      "٦": 78,
      "٧": 79,
      "٨": 80,
      "٩": 81,
      "٪": 82,
      "٫": 83,
      "٬": 84,
      "٭": 85,
      "ٮ": 86,
      "ٰ": 87,
      "ٱ": 88,
      "ٲ": 89,
      "ٳ": 90,
      "ٴ": 91,
      "ٵ": 92,
      "ٶ": 93,
      "ٷ": 94,
      "ٸ": 95,
      "ٹ": 96,
      "ٺ": 97,
      "ٻ": 98,
      "ټ": 99,
      "ٽ": 100,
      "پ": 101,
      "ٿ": 102,
      "ڀ": 103,
      "ځ": 104,
      "ڂ": 105,
      "ڃ": 106,
      "ڄ": 107,
      "څ": 108,
      "چ": 109,
      "ڇ": 110,
      "ڈ": 111,
      "ډ": 112,
      "ڌ": 113,
      "ڍ": 114,
      "ڎ": 115,
      "ڏ": 116,
      "ڐ": 117,
      "ڑ": 118,
      "ڒ": 119,
      "ړ": 120,
      "ڔ": 121,
      "ڕ": 122,
      "ږ": 123,
      "ڗ": 124,
      "ژ": 125,
      "ڙ": 126,
      "ښ": 127,
      "ڞ": 128,
      "ڟ": 129,
      "ڠ": 130,
      "ڡ": 131,
      "ڢ": 132,
      "ڣ": 133,
      "ڤ": 134,
      "ڧ": 135,
      "ڨ": 136,
      "ک": 137,
      "ڪ": 138,
      "ګ": 139,
      "ڬ": 140,
      "ڭ": 141,
      "ڮ": 142,
      "گ": 143,
      "ڱ": 144,
      "ڳ": 145,
      "ڵ": 146,
      "ڶ": 147,
      "ں": 148,
      "ڻ": 149,
      "ڼ": 150,
      "ڽ": 151,
      "ھ": 152,
      "ڿ": 153,
      "ۀ": 154,
      "ہ": 155,
      "ۂ": 156,
      "ۃ": 157,
      "ۅ": 158,
      "ۆ": 159,
      "ۇ": 160,
      "ۈ": 161,
      "ۉ": 162,
      "ۊ": 163,
      "ۋ": 164,
      "ی": 165,
      "ۍ": 166,
      "ێ": 167,
      "ۏ": 168,
      "ې": 169,
      "ے": 170,
      "ۓ": 171,
      "۔": 172,
      "ە": 173,
      "ۖ": 174,
      "ۗ": 175,
      "ۘ": 176,
      "ۚ": 177,
      "۞": 178,
      "ۡ": 179,
      "ۢ": 180,
      "ۤ": 181,
      "ۥ": 182,
      "۩": 183,
      "۫": 184,
      "ۭ": 185,
      "ۮ": 186,
      "ۯ": 187,
      "۰": 188,
      "۱": 189,
      "۲": 190,
      "۳": 191,
      "۴": 192,
      "۵": 193,
      "۶": 194,
      "۷": 195,
      "۸": 196,
      "۹": 197,
      "ۺ": 198,
      "ۻ": 199,
      "۽": 200,
      "ۿ": 201,
      "ای": 202,
      "ان": 203,
      "ار": 204,
      "ست": 205,
      "در": 206,
      "می": 207,
      "از": 208,
      "به": 209,
      "ند": 210,
      "را": 211,
      "ال": 212,
      "ده": 213,
      "های": 214,
      "ری": 215,
      "است": 216,
      "بر": 217,
      "ود": 218,
      "که": 219,
      "با": 220,
      "ام": 221,
      "نی": 222,
      "رو": 223,
      "دی": 224,
      "ور": 225,
      "این": 226,
      "اه": 227,
      "لی": 228,
      "سی": 229,
      "بی": 230,
      "یک": 231,
      "وی": 232,
      "تو": 233,
      "ها": 234,
      "ات": 235,
      "رد": 236,
      "اب": 237,
      "اد": 238,
      "شت": 239,
      "مو": 240,
      "انی": 241,
      "من": 242,
      "لا": 243,
      "هم": 244,
      "آن": 245,
      "گر": 246,
      "اری": 247,
      "تی": 248,
      "او": 249,
      "هر": 250,
      "شد": 251,
      "زی": 252,
      "گی": 253,
      "دا": 254,
      "باز": 255,
      "فت": 256,
      "اس": 257,
      "ون": 258,
      "کن": 259,
      "برای": 260,
      "دار": 261,
      "فی": 262,
      "ما": 263,
      "تر": 264,
      "پی": 265,
      "مان": 266,
      "شی": 267,
      "کار": 268,
      "خو": 269,
      "نو": 270,
      "شده": 271,
      "فر": 272,
      "ایی": 273,
      "یا": 274,
      "مت": 275,
      "تا": 276,
      "کرد": 277,
      "بود": 278,
      "دو": 279,
      "سال": 280,
      "خت": 281,
      "گاه": 282,
      "هی": 283,
      "کی": 284,
      "خود": 285,
      "میش": 286,
      "مع": 287,
      "نگ": 288,
      "نا": 289,
      "کر": 290,
      "ول": 291,
      "مر": 292,
      "اف": 293,
      "اند": 294,
      "اده": 295,
      "مح": 296,
      "کت": 297,
      "قی": 298,
      "بال": 299,
      "سر": 300,
      "لم": 301,
      "کو": 302,
      "نام": 303,
      "وا": 304,
      "شر": 305,
      "کنی": 306,
      "ستان": 307,
      "گان": 308,
      "کند": 309,
      "آم": 310,
      "الی": 311,
      "سا": 312,
      "ههای": 313,
      "شهر": 314,
      "جه": 315,
      "میتو": 316,
      "قر": 317,
      "عی": 318,
      "۱۹": 319,
      "بو": 320,
      "مین": 321,
      "بازی": 322,
      "میشود": 323,
      "کا": 324,
      "ایر": 325,
      "بار": 326,
      "رین": 327,
      "دان": 328,
      "داشت": 329,
      "لو": 330,
      "دست": 331,
      "دارد": 332,
      "یر": 333,
      "گذ": 334,
      "کنند": 335,
      "اص": 336,
      "مای": 337,
      "اهل": 338,
      "سو": 339,
      "روی": 340,
      "لادی": 341,
      "له": 342,
      "ورد": 343,
      "میلادی": 344,
      "فو": 345,
      "فیلم": 346,
      "ابع": 347,
      "مش": 348,
      "نان": 349,
      "مد": 350,
      "کنید": 351,
      "شم": 352,
      "انه": 353,
      "۲۰": 354,
      "اط": 355,
      "شگاه": 356,
      "بت": 357,
      "خی": 358,
      "نظ": 359,
      "اید": 360,
      "چه": 361,
      "منابع": 362,
      "کم": 363,
      "استف": 364,
      "هست": 365,
      "نده": 366,
      "داد": 367,
      "استفاده": 368,
      "اع": 369,
      "دید": 370,
      "وند": 371,
      "خواه": 372,
      "قرار": 373,
      "پر": 374,
      "مج": 375,
      "کل": 376,
      "ساز": 377,
      "باشد": 378,
      "انت": 379,
      "مه": 380,
      "کش": 381,
      "ین": 382,
      "خص": 383,
      "کس": 384,
      "اما": 385,
      "آمری": 386,
      "آنها": 387,
      "شما": 388,
      "عه": 389,
      "روز": 390,
      "بع": 391,
      "میکند": 392,
      "گو": 393,
      "کرده": 394,
      "اج": 395,
      "سط": 396,
      "نیز": 397,
      "یکی": 398,
      "پس": 399,
      "سه": 400,
      "فته": 401,
      "مق": 402,
      "دور": 403,
      "نه": 404,
      "بازیک": 405,
      "فوت": 406,
      "ایت": 407,
      "بخ": 408,
      "جام": 409,
      "شان": 410,
      "فوتبال": 411,
      "ید": 412,
      "زار": 413,
      "کان": 414,
      "اق": 415,
      "رف": 416,
      "دیگر": 417,
      "ایران": 418,
      "تم": 419,
      "مس": 420,
      "بد": 421,
      "بان": 422,
      "هایی": 423,
      "بین": 424,
      "شن": 425,
      "یت": 426,
      "ارد": 427,
      "جود": 428,
      "مل": 429,
      "اره": 430,
      "اش": 431,
      "ترین": 432,
      "راه": 433,
      "نق": 434,
      "حال": 435,
      "نین": 436,
      "بل": 437,
      "صور": 438,
      "حی": 439,
      "سته": 440,
      "واق": 441,
      "بازیکنان": 442,
      "ارت": 443,
      "بز": 444,
      "قه": 445,
      "نوان": 446,
      "باید": 447,
      "بسی": 448,
      "مرد": 449,
      "اح": 450,
      "تح": 451,
      "چی": 452,
      "عنوان": 453,
      "استان": 454,
      "نس": 455,
      "هن": 456,
      "رس": 457,
      "وری": 458,
      "ایال": 459,
      "آمریکا": 460,
      "تص": 461,
      "ادی": 462,
      "زند": 463,
      "زش": 464,
      "میده": 465,
      "ساخت": 466,
      "گرد": 467,
      "اگر": 468,
      "افرا": 469,
      "شرکت": 470,
      "رسی": 471,
      "بری": 472,
      "چنین": 473,
      "مورد": 474,
      "بیشت": 475,
      "تن": 476,
      "متح": 477,
      "میتوان": 478,
      "جو": 479,
      "شته": 480,
      "رون": 481,
      "امل": 482,
      "دن": 483,
      "صورت": 484,
      "جی": 485,
      "هستند": 486,
      "۱۳": 487,
      "داری": 488,
      "تع": 489,
      "وجود": 490,
      "شه": 491,
      "زیر": 492,
      "اپ": 493,
      "واقع": 494,
      "جر": 495,
      "متحده": 496,
      "ایالات": 497,
      "سن": 498,
      "تل": 499,
      "گیری": 500,
      "چند": 501,
      "خان": 502,
      "نامه": 503,
      "انگ": 504,
      "پیش": 505,
      "انجام": 506,
      "شنا": 507,
      "افراد": 508,
      "داشته": 509,
      "وق": 510,
      "شود": 511,
      "سان": 512,
      "نظر": 513,
      "بخش": 514,
      "باشگاه": 515,
      "توسط": 516,
      "مانی": 517,
      "زمان": 518,
      "زن": 519,
      "پای": 520,
      "تق": 521,
      "داده": 522,
      "ندگان": 523,
      "شدهاست": 524,
      "بزر": 525,
      "کشور": 526,
      "آل": 527,
      "ارهای": 528,
      "نمای": 529,
      "پو": 530,
      "یم": 531,
      "فع": 532,
      "جمع": 533,
      "ایج": 534,
      "اک": 535,
      "مط": 536,
      "روش": 537,
      "مث": 538,
      "ملی": 539,
      "هو": 540,
      "میکنند": 541,
      "پرو": 542,
      "جای": 543,
      "سل": 544,
      "نیست": 545,
      "ماه": 546,
      "تاری": 547,
      "دم": 548,
      "همچنین": 549,
      "عت": 550,
      "قط": 551,
      "لین": 552,
      "برا": 553,
      "خواهد": 554,
      "انید": 555,
      "کردن": 556,
      "فیلمهای": 557,
      "جست": 558,
      "صد": 559,
      "طور": 560,
      "هنگ": 561,
      "بیرون": 562,
      "رات": 563,
      "زه": 564,
      "بوده": 565,
      "قاب": 566,
      "امی": 567,
      "وه": 568,
      "شهرستان": 569,
      "گون": 570,
      "بیشتر": 571,
      "کلی": 572,
      "زاد": 573,
      "اض": 574,
      "بزرگ": 575,
      "تب": 576,
      "گری": 577,
      "اخ": 578,
      "صی": 579,
      "بسیار": 580,
      "ره": 581,
      "مار": 582,
      "پیوند": 583,
      "زبان": 584,
      "وید": 585,
      "اتی": 586,
      "قل": 587,
      "مرک": 588,
      "جا": 589,
      "دل": 590,
      "تما": 591,
      "شید": 592,
      "بعد": 593,
      "زندگی": 594,
      "زمین": 595,
      "مص": 596,
      "تیم": 597,
      "واب": 598,
      "گران": 599,
      "نوی": 600,
      "روست": 601,
      "تش": 602,
      "گذاری": 603,
      "دارند": 604,
      "پرد": 605,
      "شاه": 606,
      "آی": 607,
      "ولی": 608,
      "گرفت": 609,
      "هرست": 610,
      "ایل": 611,
      "ایش": 612,
      "تان": 613,
      "فهرست": 614,
      "غی": 615,
      "جدید": 616,
      "گفت": 617,
      "تولی": 618,
      "ندی": 619,
      "سری": 620,
      "وابسته": 621,
      "میتواند": 622,
      "نفر": 623,
      "فران": 624,
      "ختل": 625,
      "لیل": 626,
      "کتاب": 627,
      "رم": 628,
      "لت": 629,
      "میدهد": 630,
      "نم": 631,
      "طی": 632,
      "عر": 633,
      "آب": 634,
      "یافت": 635,
      "گل": 636,
      "مدی": 637,
      "ونی": 638,
      "حد": 639,
      "ثر": 640,
      "کاربر": 641,
      "آمو": 642,
      "شب": 643,
      "اشت": 644,
      "ویی": 645,
      "عات": 646,
      "اول": 647,
      "شهرهای": 648,
      "نج": 649,
      "افز": 650,
      "همه": 651,
      "منط": 652,
      "۲۰۰": 653,
      "جستارهای": 654,
      "نشان": 655,
      "دام": 656,
      "توجه": 657,
      "وب": 658,
      "نز": 659,
      "گرو": 660,
      "دهای": 661,
      "نت": 662,
      "گرفته": 663,
      "مانند": 664,
      "تاریخ": 665,
      "شک": 666,
      "سازی": 667,
      "خانه": 668,
      "ئی": 669,
      "دانشگاه": 670,
      "همان": 671,
      "اینکه": 672,
      "تولید": 673,
      "۲۰۱": 674,
      "همین": 675,
      "رفت": 676,
      "ودی": 677,
      "شو": 678,
      "شدن": 679,
      "مم": 680,
      "جمعیت": 681,
      "ستم": 682,
      "منت": 683,
      "متر": 684,
      "سمت": 685,
      "نیاز": 686,
      "مختل": 687,
      "پیک": 688,
      "اخت": 689,
      "لام": 690,
      "شخص": 691,
      "مرا": 692,
      "شتی": 693,
      "انتخ": 694,
      "شار": 695,
      "کنیم": 696,
      "جم": 697,
      "حتی": 698,
      "ازه": 699,
      "غیر": 700,
      "مجمو": 701,
      "مسی": 702,
      "ایجاد": 703,
      "کاری": 704,
      "میان": 705,
      "توان": 706,
      "تهای": 707,
      "غذ": 708,
      "کام": 709,
      "جنگ": 710,
      "میشوند": 711,
      "جان": 712,
      "قدر": 713,
      "تغی": 714,
      "جمه": 715,
      "عث": 716,
      "الم": 717,
      "نقش": 718,
      "فرا": 719,
      "اطلا": 720,
      "یاد": 721,
      "طر": 722,
      "مخ": 723,
      "پا": 724,
      "درو": 725,
      "ضو": 726,
      "علی": 727,
      "مست": 728,
      "ممکن": 729,
      "حل": 730,
      "باره": 731,
      "یه": 732,
      "اصلی": 733,
      "رای": 734,
      "گیر": 735,
      "میز": 736,
      "اسی": 737,
      "بن": 738,
      "میتوانید": 739,
      "دنی": 740,
      "تنها": 741,
      "سایت": 742,
      "ویژ": 743,
      "فری": 744,
      "طول": 745,
      "صف": 746,
      "رام": 747,
      "محص": 748,
      "برگ": 749,
      "بازیهای": 750,
      "وس": 751,
      "دلیل": 752,
      "مون": 753,
      "اشاره": 754,
      "ویر": 755,
      "برنامه": 756,
      "میباشد": 757,
      "ابت": 758,
      "ژی": 759,
      "بینی": 760,
      "منطقه": 761,
      "ماری": 762,
      "مهم": 763,
      "دری": 764,
      "طرا": 765,
      "کردند": 766,
      "قیق": 767,
      "نتی": 768,
      "۱۸": 769,
      "زادگان": 770,
      "باعث": 771,
      "زاده": 772,
      "برخی": 773,
      "لس": 774,
      "زیادی": 775,
      "ساس": 776,
      "خری": 777,
      "هیچ": 778,
      "کمک": 779,
      "محصول": 780,
      "تون": 781,
      "سم": 782,
      "دین": 783,
      "همراه": 784,
      "نمی": 785,
      "علا": 786,
      "مرکز": 787,
      "انیا": 788,
      "لب": 789,
      "پار": 790,
      "خار": 791,
      "چون": 792,
      "ازی": 793,
      "سب": 794,
      "اور": 795,
      "خانو": 796,
      "امه": 797,
      "رخ": 798,
      "تمام": 799,
      "دارای": 800,
      "میلی": 801,
      "هد": 802,
      "سیستم": 803,
      "فن": 804,
      "۱۹۹": 805,
      "افزایش": 806,
      "سده": 807,
      "جن": 808,
      "بسیاری": 809,
      "میر": 810,
      "حر": 811,
      "عمل": 812,
      "نوع": 813,
      "خل": 814,
      "ضی": 815,
      "اولین": 816,
      "بنی": 817,
      "مردم": 818,
      "مختلف": 819,
      "خصو": 820,
      "ابی": 821,
      "المپیک": 822,
      "تری": 823,
      "مشت": 824,
      "دوم": 825,
      "خوان": 826,
      "فه": 827,
      "تاب": 828,
      "باش": 829,
      "رب": 830,
      "دانش": 831,
      "بودند": 832,
      "فار": 833,
      "صل": 834,
      "خیلی": 835,
      "مز": 836,
      "تج": 837,
      "کسی": 838,
      "ستر": 839,
      "شکل": 840,
      "ترکی": 841,
      "وارد": 842,
      "چهار": 843,
      "پیدا": 844,
      "گونه": 845,
      "عل": 846,
      "زنده": 847,
      "وز": 848,
      "دوره": 849,
      "نویس": 850,
      "بهترین": 851,
      "آمریک": 852,
      "بور": 853,
      "منتشر": 854,
      "ضای": 855,
      "انتخاب": 856,
      "فعالی": 857,
      "طه": 858,
      "سازمان": 859,
      "رفی": 860,
      "انگلی": 861,
      "ایه": 862,
      "باشید": 863,
      "موسی": 864,
      "جهان": 865,
      "آر": 866,
      "جنو": 867,
      "تور": 868,
      "خور": 869,
      "خته": 870,
      "گوی": 871,
      "سطح": 872,
      "ستی": 873,
      "مشکل": 874,
      "کمی": 875,
      "سین": 876,
      "کوچ": 877,
      "وان": 878,
      "قب": 879,
      "کود": 880,
      "برد": 881,
      "آمد": 882,
      "بازیگران": 883,
      "بدون": 884,
      "ترا": 885,
      "بنا": 886,
      "قابل": 887,
      "۰۰": 888,
      "گذشت": 889,
      "آث": 890,
      "گروه": 891,
      "اوت": 892,
      "نش": 893,
      "کاه": 894,
      "ریان": 895,
      "ویزی": 896,
      "گیرد": 897,
      "قان": 898,
      "پذ": 899,
      "ادامه": 900,
      "زو": 901,
      "معمو": 902,
      "فرو": 903,
      "طراحی": 904,
      "ارو": 905,
      "افت": 906,
      "نهای": 907,
      "زمانی": 908,
      "میشه": 909,
      "تغییر": 910,
      "عیت": 911,
      "فا": 912,
      "مسکو": 913,
      "باشند": 914,
      "اطلاعات": 915,
      "ندان": 916,
      "تلویزی": 917,
      "ابق": 918,
      "خاص": 919,
      "رنگ": 920,
      "سوی": 921,
      "موف": 922,
      "آثار": 923,
      "آز": 924,
      "روستا": 925,
      "جهانی": 926,
      "نمایش": 927,
      "مدال": 928,
      "فل": 929,
      "آغ": 930,
      "اسب": 931,
      "شناسی": 932,
      "هران": 933,
      "موسیقی": 934,
      "توس": 935,
      "انگلیسی": 936,
      "کننده": 937,
      "شرو": 938,
      "آور": 939,
      "اثر": 940,
      "شامل": 941,
      "حق": 942,
      "آسی": 943,
      "قبل": 944,
      "بات": 945,
      "بیش": 946,
      "بازار": 947,
      "خط": 948,
      "صفح": 949,
      "ریق": 950,
      "موضو": 951,
      "گاهی": 952,
      "مناط": 953,
      "آمریکایی": 954,
      "فروش": 955,
      "لند": 956,
      "کال": 957,
      "کاهش": 958,
      "نخ": 959,
      "شین": 960,
      "شبکه": 961,
      "مدر": 962,
      "بالا": 963,
      "امکان": 964,
      "حض": 965,
      "بهای": 966,
      "حو": 967,
      "مسکونی": 968,
      "ریت": 969,
      "صن": 970,
      "اتر": 971,
      "البت": 972,
      "تهران": 973,
      "کرو": 974,
      "ران": 975,
      "شروع": 976,
      "وط": 977,
      "نسخ": 978,
      "آلمان": 979,
      "فقط": 980,
      "ثبت": 981,
      "۱۹۸": 982,
      "ضا": 983,
      "داستان": 984,
      "هوا": 985,
      "مناطق": 986,
      "البته": 987,
      "یع": 988,
      "لات": 989,
      "خواست": 990,
      "وقتی": 991,
      "زد": 992,
      "فرانسه": 993,
      "جمله": 994,
      "دریافت": 995,
      "کیلو": 996,
      "فرد": 997,
      "ساخته": 998,
      "ورزش": 999,
      "آغاز": 1000,
      "مطال": 1001,
      "هزار": 1002,
      "پایی": 1003,
      "طرف": 1004,
      "کهای": 1005,
      "باد": 1006,
      "کنار": 1007,
      "حس": 1008,
      "پرداز": 1009,
      "شناس": 1010,
      "مشخص": 1011,
      "گرا": 1012,
      "وین": 1013,
      "لیگ": 1014,
      "دیل": 1015,
      "صح": 1016,
      "اسپ": 1017,
      "تف": 1018,
      "راب": 1019,
      "دیگری": 1020,
      "تجر": 1021,
      "سام": 1022,
      "جمهوری": 1023,
      "فیل": 1024,
      "باط": 1025,
      "ریه": 1026,
      "کنم": 1027,
      "کلا": 1028,
      "شدند": 1029,
      "مدت": 1030,
      "طبی": 1031,
      "بانی": 1032,
      "میت": 1033,
      "نسبت": 1034,
      "صر": 1035,
      "بریت": 1036,
      "قا": 1037,
      "دیو": 1038,
      "حدود": 1039,
      "مثل": 1040,
      "حرف": 1041,
      "اهالی": 1042,
      "عد": 1043,
      "مال": 1044,
      "اجتما": 1045,
      "درباره": 1046,
      "یعنی": 1047,
      "مسا": 1048,
      "آورد": 1049,
      "سیم": 1050,
      "طریق": 1051,
      "تأ": 1052,
      "حا": 1053,
      "دیم": 1054,
      "بودن": 1055,
      "اساس": 1056,
      "دهید": 1057,
      "مجموعه": 1058,
      "قسمت": 1059,
      "مقال": 1060,
      "کارگرد": 1061,
      "کسب": 1062,
      "اون": 1063,
      "دنبال": 1064,
      "چرا": 1065,
      "خورد": 1066,
      "احتم": 1067,
      "میتوانند": 1068,
      "مها": 1069,
      "برابر": 1070,
      "چشم": 1071,
      "خودرو": 1072,
      "گفته": 1073,
      "نزدی": 1074,
      "بررسی": 1075,
      "ایرانی": 1076,
      "طب": 1077,
      "قیمت": 1078,
      "معرفی": 1079,
      "ثیر": 1080,
      "مدل": 1081,
      "اعلام": 1082,
      "کری": 1083,
      "دهد": 1084,
      "میل": 1085,
      "عو": 1086,
      "مربو": 1087,
      "درگذشت": 1088,
      "تبدیل": 1089,
      "اجتماعی": 1090,
      "آخ": 1091,
      "کشتی": 1092,
      "کیل": 1093,
      "ساعت": 1094,
      "نخست": 1095,
      "مغ": 1096,
      "قال": 1097,
      "ژه": 1098,
      "دهه": 1099,
      "دیده": 1100,
      "حت": 1101,
      "میکرد": 1102,
      "چیزی": 1103,
      "یو": 1104,
      "کنون": 1105,
      "پرداخت": 1106,
      "انسان": 1107,
      "دولت": 1108,
      "موضوع": 1109,
      "خرید": 1110,
      "بیماری": 1111,
      "گه": 1112,
      "زا": 1113,
      "مک": 1114,
      "باس": 1115,
      "خانواده": 1116,
      "تعداد": 1117,
      "گذشته": 1118,
      "ویت": 1119,
      "سخ": 1120,
      "خاط": 1121,
      "ایم": 1122,
      "مید": 1123,
      "هدف": 1124,
      "فعالیت": 1125,
      "کوچک": 1126,
      "پزش": 1127,
      "بهتر": 1128,
      "فکر": 1129,
      "حضور": 1130,
      "بیان": 1131,
      "محمد": 1132,
      "میم": 1133,
      "خلا": 1134,
      "روسی": 1135,
      "بنیان": 1136,
      "ستانی": 1137,
      "سپ": 1138,
      "کامل": 1139,
      "شهای": 1140,
      "موجود": 1141,
      "پایان": 1142,
      "نر": 1143,
      "نتیجه": 1144,
      "پل": 1145,
      "چین": 1146,
      "شور": 1147,
      "عمو": 1148,
      "دستگاه": 1149,
      "۱۹۷": 1150,
      "توسعه": 1151,
      "نوشت": 1152,
      "رسید": 1153,
      "وال": 1154,
      "کوت": 1155,
      "گوشی": 1156,
      "بدن": 1157,
      "ژان": 1158,
      "کاربران": 1159,
      "ظه": 1160,
      "ارتباط": 1161,
      "پذیر": 1162,
      "۲۱": 1163,
      "زنان": 1164,
      "عرض": 1165,
      "تهی": 1166,
      "زین": 1167,
      "مصرف": 1168,
      "درصد": 1169,
      "سفر": 1170,
      "دها": 1171,
      "آوری": 1172,
      "شرای": 1173,
      "مواد": 1174,
      "مربوط": 1175,
      "سپس": 1176,
      "اوری": 1177,
      "پاس": 1178,
      "فرود": 1179,
      "ژاپ": 1180,
      "کاران": 1181,
      "خصوص": 1182,
      "المل": 1183,
      "ندارد": 1184,
      "خوب": 1185,
      "احتمال": 1186,
      "اقتص": 1187,
      "جذ": 1188,
      "ارایه": 1189,
      "پنج": 1190,
      "داران": 1191,
      "رک": 1192,
      "ابه": 1193,
      "میرس": 1194,
      "لامی": 1195,
      "ازم": 1196,
      "خلی": 1197,
      "صب": 1198,
      "گذار": 1199,
      "انگل": 1200,
      "ماده": 1201,
      "دریا": 1202,
      "پاد": 1203,
      "سید": 1204,
      "نوز": 1205,
      "تجربه": 1206,
      "امت": 1207,
      "دوران": 1208,
      "مالی": 1209,
      "الیا": 1210,
      "گزار": 1211,
      "لاح": 1212,
      "غر": 1213,
      "پول": 1214,
      "دوست": 1215,
      "امروز": 1216,
      "هند": 1217,
      "پدر": 1218,
      "تلویزیونی": 1219,
      "کات": 1220,
      "فید": 1221,
      "تلا": 1222,
      "جز": 1223,
      "دود": 1224,
      "تحت": 1225,
      "شاید": 1226,
      "آموزش": 1227,
      "فصل": 1228,
      "خوبی": 1229,
      "پلی": 1230,
      "وسی": 1231,
      "مادر": 1232,
      "تهیه": 1233,
      "معمولا": 1234,
      "تک": 1235,
      "سرعت": 1236,
      "میشد": 1237,
      "میدهند": 1238,
      "انگلستان": 1239,
      "پن": 1240,
      "خش": 1241,
      "سون": 1242,
      "شدهاند": 1243,
      "فاق": 1244,
      "میلیون": 1245,
      "لد": 1246,
      "بندی": 1247,
      "هاد": 1248,
      "هنر": 1249,
      "اینتر": 1250,
      "مثال": 1251,
      "جلو": 1252,
      "چیز": 1253,
      "اهده": 1254,
      "برنام": 1255,
      "موارد": 1256,
      "شرکتهای": 1257,
      "زادهٔ": 1258,
      "مجموع": 1259,
      "قو": 1260,
      "کردهاست": 1261,
      "سرمای": 1262,
      "بریتانیا": 1263,
      "افه": 1264,
      "سوم": 1265,
      "بیشتری": 1266,
      "منظ": 1267,
      "میگ": 1268,
      "قای": 1269,
      "خون": 1270,
      "انتشار": 1271,
      "ویژگی": 1272,
      "کنتر": 1273,
      "حالی": 1274,
      "تشکیل": 1275,
      "بنابر": 1276,
      "شوند": 1277,
      "بودهاست": 1278,
      "محی": 1279,
      "۱۹۶": 1280,
      "شیر": 1281,
      "رت": 1282,
      "یون": 1283,
      "سک": 1284,
      "ارز": 1285,
      "کشی": 1286,
      "محل": 1287,
      "قهر": 1288,
      "زینه": 1289,
      "اصل": 1290,
      "جوان": 1291,
      "علاوه": 1292,
      "مرکزی": 1293,
      "نور": 1294,
      "حم": 1295,
      "مناسب": 1296,
      "..": 1297,
      "خد": 1298,
      "محتو": 1299,
      "ریف": 1300,
      "تصمیم": 1301,
      "میزان": 1302,
      "نگه": 1303,
      "عکس": 1304,
      "میدان": 1305,
      "اسلامی": 1306,
      "شا": 1307,
      "شخصیت": 1308,
      "پیو": 1309,
      "دارید": 1310,
      "خواهید": 1311,
      "کلم": 1312,
      "توی": 1313,
      "موق": 1314,
      "شناخته": 1315,
      "ولو": 1316,
      "جایزه": 1317,
      "کنترل": 1318,
      "برندگان": 1319,
      "ایتالیا": 1320,
      "دنیا": 1321,
      "رود": 1322,
      "سایر": 1323,
      "الکت": 1324,
      "زمینه": 1325,
      "المللی": 1326,
      "شرایط": 1327,
      "جنوبی": 1328,
      "وقت": 1329,
      "حالت": 1330,
      "دهی": 1331,
      "ابل": 1332,
      "تحصی": 1333,
      "سرا": 1334,
      "دخ": 1335,
      "میگیرد": 1336,
      "احساس": 1337,
      "درست": 1338,
      "متف": 1339,
      "هنوز": 1340,
      "گستر": 1341,
      "دادن": 1342,
      "عم": 1343,
      "سرمایه": 1344,
      "گرم": 1345,
      "خیر": 1346,
      "جدی": 1347,
      "بازیکن": 1348,
      "بیت": 1349,
      "همیشه": 1350,
      "جایی": 1351,
      "خدم": 1352,
      "رشد": 1353,
      "بنیانگذاری": 1354,
      "خاطر": 1355,
      "شماری": 1356,
      "برند": 1357,
      "شش": 1358,
      "نسخه": 1359,
      "۱۳۸": 1360,
      "بهطور": 1361,
      "بنابراین": 1362,
      "چار": 1363,
      "مدیریت": 1364,
      "ساده": 1365,
      "نوعی": 1366,
      "شمند": 1367,
      "پایه": 1368,
      "کیلومتر": 1369,
      "قدرت": 1370,
      "تاریخی": 1371,
      "چرخ": 1372,
      "نمود": 1373,
      "سیس": 1374,
      "کوتاه": 1375,
      "توصی": 1376,
      "زشی": 1377,
      "متری": 1378,
      "پان": 1379,
      "درمان": 1380,
      "نوشته": 1381,
      "مکان": 1382,
      "واع": 1383,
      "آهنگ": 1384,
      "مسیر": 1385,
      "رور": 1386,
      "ظاه": 1387,
      "روان": 1388,
      "محصولات": 1389,
      "ماند": 1390,
      "اضافه": 1391,
      "صفحه": 1392,
      "ویس": 1393,
      "سیاست": 1394,
      "تصویر": 1395,
      "جهت": 1396,
      "خواهند": 1397,
      "هفت": 1398,
      "توری": 1399,
      "مرگ": 1400,
      "روس": 1401,
      "سیار": 1402,
      "امبر": 1403,
      "نمایی": 1404,
      "مینی": 1405,
      "درگذشتگان": 1406,
      "۱۹۴": 1407,
      "شخصی": 1408,
      "هنگام": 1409,
      "دلار": 1410,
      "آمده": 1411,
      "عبار": 1412,
      "گردش": 1413,
      "۱۷": 1414,
      "مشاهده": 1415,
      "انس": 1416,
      "آید": 1417,
      "کور": 1418,
      "بخشی": 1419,
      "کد": 1420,
      "لیت": 1421,
      "طبیعی": 1422,
      "فرمان": 1423,
      "روسیه": 1424,
      "ژاپن": 1425,
      "۱۰": 1426,
      "اتفاق": 1427,
      "انواع": 1428,
      "حاض": 1429,
      "ویه": 1430,
      "نزدیک": 1431,
      "زیاد": 1432,
      "سای": 1433,
      "قانون": 1434,
      "زیرا": 1435,
      "ایست": 1436,
      "جریان": 1437,
      "ئیس": 1438,
      "میکنیم": 1439,
      "لوم": 1440,
      "سریال": 1441,
      "عمومی": 1442,
      "لازم": 1443,
      "جوی": 1444,
      "ته": 1445,
      "روف": 1446,
      "پیشر": 1447,
      "نیرو": 1448,
      "شهری": 1449,
      "آیا": 1450,
      "میرسد": 1451,
      "اغ": 1452,
      "مذ": 1453,
      "اندازه": 1454,
      "فرهنگ": 1455,
      "داخل": 1456,
      "اشته": 1457,
      "خودش": 1458,
      "فعال": 1459,
      "غذا": 1460,
      "۱۲": 1461,
      "کردهاند": 1462,
      "تابستانی": 1463,
      "خوش": 1464,
      "میکنید": 1465,
      "اولی": 1466,
      "سعی": 1467,
      "فیت": 1468,
      "حاضر": 1469,
      "مسابق": 1470,
      "خدمات": 1471,
      "حیه": 1472,
      "نخستین": 1473,
      "سالهای": 1474,
      "پیشن": 1475,
      "کنندگان": 1476,
      "نمو": 1477,
      "حرکت": 1478,
      "پرا": 1479,
      "رسمی": 1480,
      "سیاسی": 1481,
      "پور": 1482,
      "پوست": 1483,
      "فون": 1484,
      "پایین": 1485,
      "گیاه": 1486,
      "آفری": 1487,
      "نیت": 1488,
      "دختر": 1489,
      "تحقیق": 1490,
      "تلاش": 1491,
      "۱۳۹": 1492,
      "ویژه": 1493,
      "۱۵": 1494,
      "اعضای": 1495,
      "هنگی": 1496,
      "خبر": 1497,
      "مف": 1498,
      "کشف": 1499,
      "کها": 1500,
      "دول": 1501,
      "عرضه": 1502,
      "گزارش": 1503,
      "برداری": 1504,
      "فناوری": 1505,
      "گن": 1506,
      "دقیق": 1507,
      "فرزند": 1508,
      "پژ": 1509,
      "کافی": 1510,
      "اران": 1511,
      "وض": 1512,
      "سنگ": 1513,
      "مدار": 1514,
      "پاسخ": 1515,
      "کوه": 1516,
      "نیا": 1517,
      "شماره": 1518,
      "محیط": 1519,
      "بینالمللی": 1520,
      "۱۹۵": 1521,
      "بیمار": 1522,
      "تس": 1523,
      "روزی": 1524,
      "زیک": 1525,
      "اقدام": 1526,
      "کتا": 1527,
      "جامعه": 1528,
      "استرا": 1529,
      "غال": 1530,
      "گردد": 1531,
      "سلط": 1532,
      "آباد": 1533,
      "دسته": 1534,
      "رژی": 1535,
      "فاع": 1536,
      "بهعنوان": 1537,
      "لح": 1538,
      "موج": 1539,
      "آذ": 1540,
      "پسر": 1541,
      "وم": 1542,
      "تبلی": 1543,
      "داشتن": 1544,
      "وطن": 1545,
      "کاملا": 1546,
      "دهستان": 1547,
      "طبق": 1548,
      "شکست": 1549,
      "اختی": 1550,
      "کمتر": 1551,
      "اروپا": 1552,
      "گاههای": 1553,
      "صرف": 1554,
      "موفق": 1555,
      "میگوید": 1556,
      "انگی": 1557,
      "گشت": 1558,
      "قیت": 1559,
      "ارا": 1560,
      "ورزشکاران": 1561,
      "فس": 1562,
      "نظامی": 1563,
      "رمان": 1564,
      "مجلس": 1565,
      "باه": 1566,
      "مری": 1567,
      "طرح": 1568,
      "۱۴": 1569,
      "خارج": 1570,
      "تبلیغ": 1571,
      "سرشماری": 1572,
      "ابتدا": 1573,
      "میرود": 1574,
      "جل": 1575,
      "کره": 1576,
      "بند": 1577,
      "متن": 1578,
      "ستا": 1579,
      "بلند": 1580,
      "گز": 1581,
      "نیروی": 1582,
      "سرد": 1583,
      "دهند": 1584,
      "مسابقات": 1585,
      "ادا": 1586,
      "چنان": 1587,
      "فارسی": 1588,
      "اجرا": 1589,
      "بازیگر": 1590,
      "بتو": 1591,
      "آزمای": 1592,
      "دهم": 1593,
      "بازبینی": 1594,
      "ارزش": 1595,
      "فرهنگی": 1596,
      "پشت": 1597,
      "حله": 1598,
      "صحبت": 1599,
      "علمی": 1600,
      "گیرند": 1601,
      "حدا": 1602,
      "کنه": 1603,
      "مشکلات": 1604,
      "ایند": 1605,
      "بعدی": 1606,
      "اکنون": 1607,
      "سریع": 1608,
      "قت": 1609,
      "شمال": 1610,
      "مرحله": 1611,
      "آینده": 1612,
      "مول": 1613,
      "آزاد": 1614,
      "بیه": 1615,
      "روند": 1616,
      "تها": 1617,
      "سیاه": 1618,
      "انرژی": 1619,
      "وران": 1620,
      "دوربین": 1621,
      "فظ": 1622,
      "محدود": 1623,
      "ژن": 1624,
      "مدیر": 1625,
      "سوال": 1626,
      "بالاتر": 1627,
      "بسته": 1628,
      "قدی": 1629,
      "عملی": 1630,
      "بهره": 1631,
      "نای": 1632,
      "جد": 1633,
      "اتح": 1634,
      "جنوب": 1635,
      "سخت": 1636,
      "بست": 1637,
      "ایع": 1638,
      "ماهی": 1639,
      "آنجا": 1640,
      "نگاه": 1641,
      "بلکه": 1642,
      "ناحیه": 1643,
      "مایی": 1644,
      "حساب": 1645,
      "آش": 1646,
      "غربی": 1647,
      "گمر": 1648,
      "مند": 1649,
      "قرن": 1650,
      "ساله": 1651,
      "په": 1652,
      "ئو": 1653,
      "داخلی": 1654,
      "فضای": 1655,
      "پروژه": 1656,
      "کارهای": 1657,
      "۱۶": 1658,
      "انیم": 1659,
      "پژوه": 1660,
      "گوگل": 1661,
      "عبارت": 1662,
      "سبک": 1663,
      "مرتب": 1664,
      "علت": 1665,
      "تقری": 1666,
      "تین": 1667,
      "درآمد": 1668,
      "نید": 1669,
      "اها": 1670,
      "نهایت": 1671,
      "خر": 1672,
      "متو": 1673,
      "کارگردانی": 1674,
      "هزینه": 1675,
      "درد": 1676,
      "لر": 1677,
      "بیر": 1678,
      "سروی": 1679,
      "حقوق": 1680,
      "خصوصی": 1681,
      "پیام": 1682,
      "شمار": 1683,
      "موتور": 1684,
      "تبار": 1685,
      "گرفتن": 1686,
      "راک": 1687,
      "نشده": 1688,
      "ابزار": 1689,
      "حالا": 1690,
      "برو": 1691,
      "اضی": 1692,
      "متفاوت": 1693,
      "آمار": 1694,
      "ایده": 1695,
      "بش": 1696,
      "نویسندگان": 1697,
      "جرا": 1698,
      "دیج": 1699,
      "پشتی": 1700,
      "رابطه": 1701,
      "ساختمان": 1702,
      "مخاط": 1703,
      "انتظ": 1704,
      "راف": 1705,
      "اندن": 1706,
      "بوم": 1707,
      "اصله": 1708,
      "۱۹۳": 1709,
      "هاش": 1710,
      "کیفیت": 1711,
      "بلو": 1712,
      "مقابل": 1713,
      "منطقهٔ": 1714,
      "پادشاه": 1715,
      "بگیری": 1716,
      "خواب": 1717,
      "گار": 1718,
      "اسپانیا": 1719,
      "شمالی": 1720,
      "وع": 1721,
      "اختیار": 1722,
      "زان": 1723,
      "مور": 1724,
      "چندین": 1725,
      "آس": 1726,
      "رح": 1727,
      "بهبود": 1728,
      "کلاس": 1729,
      "براساس": 1730,
      "کشورهای": 1731,
      "کردم": 1732,
      "تغیی": 1733,
      "رشته": 1734,
      "لیا": 1735,
      "خرا": 1736,
      "مقاله": 1737,
      "برس": 1738,
      "رسیده": 1739,
      "مهمترین": 1740,
      "عا": 1741,
      "گین": 1742,
      "مربع": 1743,
      "نرم": 1744,
      "میآید": 1745,
      "فاصله": 1746,
      "شیمی": 1747,
      "عش": 1748,
      "هوشمند": 1749,
      "بعضی": 1750,
      "هور": 1751,
      "زاری": 1752,
      "حز": 1753,
      "رض": 1754,
      "روستایی": 1755,
      "اهمیت": 1756,
      "هفته": 1757,
      "تعریف": 1758,
      "قف": 1759,
      "ماس": 1760,
      "غل": 1761,
      "قدیمی": 1762,
      "نیم": 1763,
      "مهاجر": 1764,
      "جدا": 1765,
      "تخ": 1766,
      "نکت": 1767,
      "عملکرد": 1768,
      "برگزار": 1769,
      "همکاری": 1770,
      "راهی": 1771,
      "چر": 1772,
      "دیجیت": 1773,
      "چال": 1774,
      "گرام": 1775,
      "موفقیت": 1776,
      "درون": 1777,
      "عامل": 1778,
      "لای": 1779,
      "الله": 1780,
      "ورک": 1781,
      "رونی": 1782,
      "شورای": 1783,
      "توضی": 1784,
      "غول": 1785,
      "علوم": 1786,
      "شرقی": 1787,
      "پزشکی": 1788,
      "دریایی": 1789,
      "کتر": 1790,
      "راق": 1791,
      "جع": 1792,
      "استانی": 1793,
      "چاپ": 1794,
      "منظور": 1795,
      "حتما": 1796,
      "پیشنهاد": 1797,
      "مطالعه": 1798,
      "ادبی": 1799,
      "کالی": 1800,
      "دنیای": 1801,
      "عالی": 1802,
      "نیو": 1803,
      "ندگی": 1804,
      "دقی": 1805,
      "بح": 1806,
      "مقدار": 1807,
      "هها": 1808,
      "ابقه": 1809,
      "تمامی": 1810,
      "خطر": 1811,
      "آخرین": 1812,
      "دسترسی": 1813,
      "سرویس": 1814,
      "ازدو": 1815,
      "جال": 1816,
      "درس": 1817,
      "مبت": 1818,
      "اقتصادی": 1819,
      "ازدواج": 1820,
      "بیل": 1821,
      "حکو": 1822,
      "زیست": 1823,
      "دوباره": 1824,
      "همسر": 1825,
      "اندر": 1826,
      "تقریبا": 1827,
      "سود": 1828,
      "اینجا": 1829,
      "ژو": 1830,
      "لذ": 1831,
      "کودک": 1832,
      "ندار": 1833,
      "خدا": 1834,
      "باقی": 1835,
      "اتری": 1836,
      "هواپی": 1837,
      "اجازه": 1838,
      "طلا": 1839,
      "ویل": 1840,
      "امتی": 1841,
      "هشت": 1842,
      "تیب": 1843,
      "برنامههای": 1844,
      "پاک": 1845,
      "ابد": 1846,
      "افرادی": 1847,
      "توضیح": 1848,
      "برتر": 1849,
      "قیم": 1850,
      "سوب": 1851,
      "ترکیب": 1852,
      "اولیه": 1853,
      "کدام": 1854,
      "مثلا": 1855,
      "رال": 1856,
      "برنده": 1857,
      "واقعی": 1858,
      "اپلی": 1859,
      "دارو": 1860,
      "انج": 1861,
      "منتق": 1862,
      "بک": 1863,
      "لان": 1864,
      "میکنم": 1865,
      "اغلب": 1866,
      "مهند": 1867,
      "تعی": 1868,
      "رافی": 1869,
      "غذایی": 1870,
      "همچون": 1871,
      "کودکان": 1872,
      "لاین": 1873,
      "کیشن": 1874,
      "زده": 1875,
      "کارگردان": 1876,
      "حفظ": 1877,
      "زل": 1878,
      "راست": 1879,
      "وضعیت": 1880,
      "مهر": 1881,
      "معروف": 1882,
      "زیب": 1883,
      "دیگران": 1884,
      "اشی": 1885,
      "اتو": 1886,
      "چگونه": 1887,
      "قات": 1888,
      "قصد": 1889,
      "فایل": 1890,
      "حوزه": 1891,
      "صدا": 1892,
      "لباس": 1893,
      "افظ": 1894,
      "نداشت": 1895,
      "بلا": 1896,
      "داشتند": 1897,
      "استاد": 1898,
      "پرس": 1899,
      "باشی": 1900,
      "آلبوم": 1901,
      "تعیین": 1902,
      "انتظار": 1903,
      "ابان": 1904,
      "پخش": 1905,
      "ادر": 1906,
      "رقاب": 1907,
      "وار": 1908,
      "پست": 1909,
      "انههای": 1910,
      "فیلمها": 1911,
      "شنو": 1912,
      "حرفهای": 1913,
      "ریزی": 1914,
      "فشار": 1915,
      "درجه": 1916,
      "عهده": 1917,
      "دستی": 1918,
      "تنظ": 1919,
      "نویسنده": 1920,
      "نگی": 1921,
      "هستید": 1922,
      "تار": 1923,
      "نبود": 1924,
      "اتاق": 1925,
      "ترتیب": 1926,
      "یافته": 1927,
      "صه": 1928,
      "فرم": 1929,
      "تقسیم": 1930,
      "زیبا": 1931,
      "مشتری": 1932,
      "خارجی": 1933,
      "آیند": 1934,
      "ایالت": 1935,
      "اسلام": 1936,
      "چو": 1937,
      "اجرای": 1938,
      "ضد": 1939,
      "مساحت": 1940,
      "حسین": 1941,
      "تنظیم": 1942,
      "رئیس": 1943,
      "روشن": 1944,
      "حمله": 1945,
      "نگار": 1946,
      "مبار": 1947,
      "انتقال": 1948,
      "بها": 1949,
      "عضو": 1950,
      "عتی": 1951,
      "درام": 1952,
      "بخو": 1953,
      "بازاری": 1954,
      "ادل": 1955,
      "ورود": 1956,
      "ترجمه": 1957,
      "فراهم": 1958,
      "کتی": 1959,
      "گذاشت": 1960,
      "اپلیکیشن": 1961,
      "اختص": 1962,
      "هنری": 1963,
      "قابلیت": 1964,
      "خواهیم": 1965,
      "کانادا": 1966,
      "ذهن": 1967,
      "ترک": 1968,
      "نیروهای": 1969,
      "توانست": 1970,
      "میکردند": 1971,
      "تشخی": 1972,
      "دقیقه": 1973,
      "اینترنت": 1974,
      "سفید": 1975,
      "معنی": 1976,
      "اسم": 1977,
      "حزب": 1978,
      "محبو": 1979,
      "اطلاع": 1980,
      "میک": 1981,
      "شوید": 1982,
      "عمر": 1983,
      "بس": 1984,
      "داریم": 1985,
      "فرودگاه": 1986,
      "حمای": 1987,
      "حذ": 1988,
      "عدد": 1989,
      "ئه": 1990,
      "حکومت": 1991,
      "مدرسه": 1992,
      "سرو": 1993,
      "فزار": 1994,
      "دانشآمو": 1995,
      "قلاب": 1996,
      "بزرگترین": 1997,
      "وزیر": 1998,
      "آنچه": 1999,
      "ترکیه": 2000,
      "موجب": 2001,
      "حمل": 2002,
      "اکت": 2003,
      "نار": 2004,
      "جدیدی": 2005,
      "رفته": 2006,
      "باغ": 2007,
      "وزن": 2008,
      "ماشین": 2009,
      "آرا": 2010,
      "توانایی": 2011,
      "قهرمان": 2012,
      "غان": 2013,
      "خاک": 2014,
      "ضر": 2015,
      "منجر": 2016,
      "آبی": 2017,
      "تشخیص": 2018,
      "مرتبط": 2019,
      "عدم": 2020,
      "زم": 2021,
      "گوش": 2022,
      "ترس": 2023,
      "برج": 2024,
      "احتمالا": 2025,
      "رق": 2026,
      "چیست": 2027,
      "نرما": 2028,
      "محسوب": 2029,
      "هام": 2030,
      "فض": 2031,
      "خاصی": 2032,
      "رفتار": 2033,
      "جنسی": 2034,
      "سول": 2035,
      "دکتر": 2036,
      "تصا": 2037,
      "گردشگری": 2038,
      "هنرم": 2039,
      "تای": 2040,
      "نمونه": 2041,
      "میگوی": 2042,
      "روستاهای": 2043,
      "باور": 2044,
      "محلی": 2045,
      "۲۲": 2046,
      "نصب": 2047,
      "اشتباه": 2048,
      "جلوگیری": 2049,
      "وح": 2050,
      "برادر": 2051,
      "جزیر": 2052,
      "منبع": 2053,
      "نیوی": 2054,
      "آماده": 2055,
      "متوجه": 2056,
      "دیجیتال": 2057,
      "انقلاب": 2058,
      "بحث": 2059,
      "صنعت": 2060,
      "شبیه": 2061,
      "مشابه": 2062,
      "طولانی": 2063,
      "پشتیبانی": 2064,
      "باب": 2065,
      "جذب": 2066,
      "لاس": 2067,
      "مشتریان": 2068,
      "کشتیهای": 2069,
      "میگردد": 2070,
      "دای": 2071,
      "گردید": 2072,
      "مانده": 2073,
      "تحصیل": 2074,
      "مختلفی": 2075,
      "بالای": 2076,
      "تاثیر": 2077,
      "درک": 2078,
      "ارتش": 2079,
      "روشهای": 2080,
      "گزین": 2081,
      "ریک": 2082,
      "دادی": 2083,
      "۲۰۱۰": 2084,
      "کف": 2085,
      "وف": 2086,
      "تحلیل": 2087,
      "مقام": 2088,
      "تازه": 2089,
      "رسیدن": 2090,
      "سیون": 2091,
      "اپل": 2092,
      "اهدا": 2093,
      "یادگیری": 2094,
      "خصص": 2095,
      "آتش": 2096,
      "اینستا": 2097,
      "دوستان": 2098,
      "خیره": 2099,
      "لمانی": 2100,
      "کمپ": 2101,
      "بگیرید": 2102,
      "ارسال": 2103,
      "شوروی": 2104,
      "انداز": 2105,
      "امنیت": 2106,
      "نسل": 2107,
      "زر": 2108,
      "دچار": 2109,
      "تجاری": 2110,
      "طوری": 2111,
      "امام": 2112,
      "وظ": 2113,
      "درخت": 2114,
      "روم": 2115,
      "شع": 2116,
      "آسیب": 2117,
      "مقای": 2118,
      "ادگی": 2119,
      "ونت": 2120,
      "یری": 2121,
      "تئ": 2122,
      "نیویورک": 2123,
      "امر": 2124,
      "کنش": 2125,
      "ویژگیهای": 2126,
      "دادند": 2127,
      "راحتی": 2128,
      "مشغول": 2129,
      "آذرب": 2130,
      "ظاهر": 2131,
      "پیشرفت": 2132,
      "دستور": 2133,
      "اختصاص": 2134,
      "روغ": 2135,
      "آذربایج": 2136,
      "آنلاین": 2137,
      "غرب": 2138,
      "اث": 2139,
      "سف": 2140,
      "ههایی": 2141,
      "یکدیگر": 2142,
      "هٔ": 2143,
      "آخر": 2144,
      "بازاریابی": 2145,
      "حمایت": 2146,
      "حداقل": 2147,
      "نک": 2148,
      "ابط": 2149,
      "تیک": 2150,
      "تلویزیون": 2151,
      "روستای": 2152,
      "روح": 2153,
      "دهنده": 2154,
      "رتبه": 2155,
      "اهی": 2156,
      "توابع": 2157,
      "کامپیو": 2158,
      "اردی": 2159,
      "استی": 2160,
      "بنیانگذاریشده": 2161,
      "اجه": 2162,
      "وزار": 2163,
      "سبز": 2164,
      "ابر": 2165,
      "انهای": 2166,
      "درخواست": 2167,
      "نکته": 2168,
      "مسل": 2169,
      "خرد": 2170,
      "فنی": 2171,
      "الگو": 2172,
      "تغییرات": 2173,
      "۲۵": 2174,
      "اقتصاد": 2175,
      "جهی": 2176,
      "انتخا": 2177,
      "گراف": 2178,
      "خیابان": 2179,
      "وزارت": 2180,
      "شای": 2181,
      "خانوار": 2182,
      "آورده": 2183,
      "مطرح": 2184,
      "صدای": 2185,
      "عبد": 2186,
      "اندازی": 2187,
      "ذکر": 2188,
      "انجمن": 2189,
      "فردی": 2190,
      "گانه": 2191,
      "فرایند": 2192,
      "کسانی": 2193,
      "تیر": 2194,
      "یابد": 2195,
      "علم": 2196,
      "صو": 2197,
      "آنان": 2198,
      "شاهد": 2199,
      "آشنا": 2200,
      "ارم": 2201,
      "چهر": 2202,
      "رز": 2203,
      "علاقه": 2204,
      "فرص": 2205,
      "استرالیا": 2206,
      "پیاده": 2207,
      "هوایی": 2208,
      "اشق": 2209,
      "جشنو": 2210,
      "چرخه": 2211,
      "ویم": 2212,
      "زای": 2213,
      "صنایع": 2214,
      "لاتین": 2215,
      "فرانسوی": 2216,
      "موس": 2217,
      "کالیفر": 2218,
      "ولوژی": 2219,
      "روابط": 2220,
      "اندی": 2221,
      "حسن": 2222,
      "شدت": 2223,
      "نتایج": 2224,
      "تامین": 2225,
      "الو": 2226,
      "سیارک": 2227,
      "مناس": 2228,
      "معماری": 2229,
      "توصیف": 2230,
      "عشق": 2231,
      "آلمانی": 2232,
      "الف": 2233,
      "اطراف": 2234,
      "آدم": 2235,
      "مقایسه": 2236,
      "گذر": 2237,
      "انیایی": 2238,
      "پری": 2239,
      "الت": 2240,
      "باشه": 2241,
      "ستون": 2242,
      "افغان": 2243,
      "تأسیس": 2244,
      "میخو": 2245,
      "گا": 2246,
      "برزی": 2247,
      "داره": 2248,
      "ختگان": 2249,
      "ایف": 2250,
      "هوش": 2251,
      "ارتفاع": 2252,
      "بیا": 2253,
      "ناس": 2254,
      "۲۳": 2255,
      "امور": 2256,
      "مهارت": 2257,
      "سیل": 2258,
      "ساختار": 2259,
      "تاپ": 2260,
      "علیه": 2261,
      "خودم": 2262,
      "روزنامه": 2263,
      "بانک": 2264,
      "عربی": 2265,
      "کول": 2266,
      "آرام": 2267,
      "لهستان": 2268,
      "ناک": 2269,
      "کالیفرنیا": 2270,
      "روری": 2271,
      "پرواز": 2272,
      "مخصوص": 2273,
      "خرو": 2274,
      "آموزشی": 2275,
      "تصاویر": 2276,
      "استودی": 2277,
      "ایز": 2278,
      "باشیم": 2279,
      "قهرمانی": 2280,
      "شرق": 2281,
      "تمرکز": 2282,
      "اینستاگرام": 2283,
      "عراق": 2284,
      "ترانه": 2285,
      "هنگامی": 2286,
      "شدید": 2287,
      "سنتی": 2288,
      "انسانی": 2289,
      "محتوای": 2290,
      "سیر": 2291,
      "فروشگاه": 2292,
      "سینما": 2293,
      "مستقیم": 2294,
      "ناب": 2295,
      "امروزه": 2296,
      "آذربایجان": 2297,
      "افزار": 2298,
      "رضا": 2299,
      "تفاوت": 2300,
      "حذف": 2301,
      "انین": 2302,
      "کمپانی": 2303,
      "صورتی": 2304,
      "عص": 2305,
      "مشهور": 2306,
      "سابق": 2307,
      "طل": 2308,
      "فعالیتهای": 2309,
      "ندارند": 2310,
      "پرت": 2311,
      "بازگشت": 2312,
      "میرا": 2313,
      "چک": 2314,
      "ندر": 2315,
      "طان": 2316,
      "قلم": 2317,
      "۱۱": 2318,
      "معنای": 2319,
      "دون": 2320,
      "بودم": 2321,
      "گانی": 2322,
      "الکترونی": 2323,
      "نمیشود": 2324,
      "دانشآموختگان": 2325,
      "تصوی": 2326,
      "مؤ": 2327,
      "نهایی": 2328,
      "۲۴": 2329,
      "گسترش": 2330,
      "خودتان": 2331,
      "رست": 2332,
      "قد": 2333,
      "موقعیت": 2334,
      "نرمافزار": 2335,
      "مام": 2336,
      "مغز": 2337,
      "ینه": 2338,
      "شبکههای": 2339,
      "ورزشی": 2340,
      "رفتن": 2341,
      "صبح": 2342,
      "جری": 2343,
      "فرست": 2344,
      "خوانندگان": 2345,
      "دسترس": 2346,
      "وبسایت": 2347,
      "سلول": 2348,
      "نامهای": 2349,
      "محتوا": 2350,
      "حاصل": 2351,
      "سرخ": 2352,
      "لذت": 2353,
      "مایل": 2354,
      "ویروس": 2355,
      "بای": 2356,
      "لود": 2357,
      "۳۰": 2358,
      "جغ": 2359,
      "عض": 2360,
      "مشاور": 2361,
      "نگر": 2362,
      "رمز": 2363,
      "روغن": 2364,
      "کارت": 2365,
      "پدی": 2366,
      "قض": 2367,
      "ذخیره": 2368,
      "دارم": 2369,
      "سلی": 2370,
      "خام": 2371,
      "قره": 2372,
      "فتر": 2373,
      "تز": 2374,
      "تکن": 2375,
      "ادبیات": 2376,
      "اسف": 2377,
      "مود": 2378,
      "بههای": 2379,
      "قوی": 2380,
      "یهودی": 2381,
      "زیبایی": 2382,
      "کمدی": 2383,
      "مراسم": 2384,
      "تماد": 2385,
      "گام": 2386,
      "قطع": 2387,
      "رژ": 2388,
      "اخیر": 2389,
      "کشاور": 2390,
      "بروز": 2391,
      "قبلی": 2392,
      "وش": 2393,
      "برخور": 2394,
      "امپرا": 2395,
      "واحد": 2396,
      "شهرد": 2397,
      "بهصورت": 2398,
      "نقطه": 2399,
      "مفهو": 2400,
      "ریی": 2401,
      "کتابهای": 2402,
      "پژوهش": 2403,
      "عملیات": 2404,
      "ریم": 2405,
      "وسیله": 2406,
      "رایگان": 2407,
      "دیگه": 2408,
      "مواجه": 2409,
      "پارک": 2410,
      "تحقیقات": 2411,
      "نظیر": 2412,
      "زدن": 2413,
      "جشنواره": 2414,
      "اصفه": 2415,
      "برزیل": 2416,
      "نح": 2417,
      "اعتماد": 2418,
      "کشته": 2419,
      "تلفن": 2420,
      "سور": 2421,
      "جزیره": 2422,
      "بخشهای": 2423,
      "نیمه": 2424,
      "همچنان": 2425,
      "لیست": 2426,
      "بگذاری": 2427,
      "نباید": 2428,
      "همو": 2429,
      "۱۳۷": 2430,
      "راحت": 2431,
      "خلق": 2432,
      "کمر": 2433,
      "دقت": 2434,
      "نها": 2435,
      "نداشته": 2436,
      "آوران": 2437,
      "بزرگی": 2438,
      "ویدی": 2439,
      "تماس": 2440,
      "عرب": 2441,
      "پرندگان": 2442,
      "انگیز": 2443,
      "نقل": 2444,
      "مجازی": 2445,
      "ثابت": 2446,
      "سلامت": 2447,
      "فلس": 2448,
      "نظام": 2449,
      "بنیانگذاریهای": 2450,
      "باستان": 2451,
      "شنی": 2452,
      "مفید": 2453,
      "مدتی": 2454,
      "مذه": 2455,
      "میبرد": 2456,
      "میگیرند": 2457,
      "شیمیایی": 2458,
      "اکثر": 2459,
      "بچه": 2460,
      "آسیا": 2461,
      "ثی": 2462,
      "آزمایش": 2463,
      "دربار": 2464,
      "مرغ": 2465,
      "کشت": 2466,
      "قوانین": 2467,
      "هتل": 2468,
      "نمایندگان": 2469,
      "شناسان": 2470,
      "نویسی": 2471,
      "افغانستان": 2472,
      "مراج": 2473,
      "تکر": 2474,
      "شون": 2475,
      "شاع": 2476,
      "بازدید": 2477,
      "برده": 2478,
      "انیه": 2479,
      "سالگی": 2480,
      "گذارد": 2481,
      "شعر": 2482,
      "گاز": 2483,
      "آزادی": 2484,
      "دیدن": 2485,
      "کرمان": 2486,
      "جذاب": 2487,
      "اصلا": 2488,
      "جالب": 2489,
      "اساسی": 2490,
      "استرات": 2491,
      "مردان": 2492,
      "زات": 2493,
      "صاح": 2494,
      "خال": 2495,
      "قلعه": 2496,
      "زنی": 2497,
      "حقیق": 2498,
      "خدمت": 2499,
      "کامپیوتر": 2500,
      "مشترک": 2501,
      "۲۰۰۰": 2502,
      "جغرافی": 2503,
      "رسانی": 2504,
      "زود": 2505,
      "تال": 2506,
      "مقاو": 2507,
      "شناسایی": 2508,
      "کردیم": 2509,
      "پاری": 2510,
      "نوشتن": 2511,
      "تبلیغات": 2512,
      "بتوان": 2513,
      "سپت": 2514,
      "گم": 2515,
      "مجد": 2516,
      "لق": 2517,
      "واقعا": 2518,
      "مدالآوران": 2519,
      "پزشک": 2520,
      "منستان": 2521,
      "سبب": 2522,
      "چهارم": 2523,
      "شکر": 2524,
      "موش": 2525,
      "بینید": 2526,
      "صال": 2527,
      "انتق": 2528,
      "زید": 2529,
      "یات": 2530,
      "آنکه": 2531,
      "اهداف": 2532,
      "صند": 2533,
      "بلی": 2534,
      "متخصص": 2535,
      "قادر": 2536,
      "دانان": 2537,
      "خودروهای": 2538,
      "استع": 2539,
      "جور": 2540,
      "هستیم": 2541,
      "دولتی": 2542,
      "خب": 2543,
      "کاربرد": 2544,
      "مسابقه": 2545,
      "خشک": 2546,
      "فضا": 2547,
      "فرض": 2548,
      "مطلب": 2549,
      "محاس": 2550,
      "واس": 2551,
      "کاس": 2552,
      "نفو": 2553,
      "همانطور": 2554,
      "سرزمین": 2555,
      "قیه": 2556,
      "مارس": 2557,
      "ویدیو": 2558,
      "مرز": 2559,
      "مسئ": 2560,
      "کز": 2561,
      "موب": 2562,
      "امپراتوری": 2563,
      "آو": 2564,
      "جوانان": 2565,
      "مراجعه": 2566,
      "پلت": 2567,
      "اشتراک": 2568,
      "انتخابات": 2569,
      "اخر": 2570,
      "خلاف": 2571,
      "سپتامبر": 2572,
      "طبقه": 2573,
      "مرور": 2574,
      "جنس": 2575,
      "بران": 2576,
      "تمرین": 2577,
      "کرا": 2578,
      "ناشی": 2579,
      "الان": 2580,
      "دفتر": 2581,
      "ظر": 2582,
      "بگیرد": 2583,
      "ویکی": 2584,
      "شنبه": 2585,
      "تاکنون": 2586,
      "اقی": 2587,
      "اصلاح": 2588,
      "اعمال": 2589,
      "انا": 2590,
      "موزه": 2591,
      "کوین": 2592,
      "۵۰": 2593,
      "نقاط": 2594,
      "باری": 2595,
      "معتق": 2596,
      "تست": 2597,
      "کنسول": 2598,
      "عوامل": 2599,
      "نیستند": 2600,
      "مهندسی": 2601,
      "اداره": 2602,
      "جاده": 2603,
      "باشگاههایی": 2604,
      "ژیک": 2605,
      "رییس": 2606,
      "گذاشته": 2607,
      "اختل": 2608,
      "مراحل": 2609,
      "ریاضی": 2610,
      "علاق": 2611,
      "رش": 2612,
      "آقای": 2613,
      "امید": 2614,
      "سراسر": 2615,
      "مهاجرت": 2616,
      "هنوی": 2617,
      "صنعتی": 2618,
      "ارستان": 2619,
      "ارائه": 2620,
      "استار": 2621,
      "عبور": 2622,
      "نظریه": 2623,
      "شکده": 2624,
      "میراث": 2625,
      "ایان": 2626,
      "شاخ": 2627,
      "بهداشت": 2628,
      "جزی": 2629,
      "پوش": 2630,
      "اصط": 2631,
      "انیان": 2632,
      "اگرچه": 2633,
      "فوق": 2634,
      "مثبت": 2635,
      "۱۳۸۵": 2636,
      "میگویند": 2637,
      "۲۸": 2638,
      "مستقل": 2639,
      "آهن": 2640,
      "اکتبر": 2641,
      "همزمان": 2642,
      "موبایل": 2643,
      "بالایی": 2644,
      "هایش": 2645,
      "یابی": 2646,
      "اختلال": 2647,
      "منفی": 2648,
      "کاربری": 2649,
      "معمولاً": 2650,
      "ریاست": 2651,
      "احمد": 2652,
      "لاف": 2653,
      "شرح": 2654,
      "هلند": 2655,
      "معت": 2656,
      "دوچرخه": 2657,
      "تصور": 2658,
      "اصفهان": 2659,
      "خواننده": 2660,
      "مصنوعی": 2661,
      "فول": 2662,
      "فین": 2663,
      "برخورد": 2664,
      "جلس": 2665,
      "فیلمن": 2666,
      "لیم": 2667,
      "اعترا": 2668,
      "قالب": 2669,
      "مجموعههای": 2670,
      "فتی": 2671,
      "جویی": 2672,
      "پیچی": 2673,
      "گروهی": 2674,
      "چش": 2675,
      "مربیان": 2676,
      "توصیه": 2677,
      "حقیقت": 2678,
      "شهرداری": 2679,
      "ارمنستان": 2680,
      "مقد": 2681,
      "اوایل": 2682,
      "وانی": 2683,
      "واژه": 2684,
      "نکنید": 2685,
      "آف": 2686,
      "قانونی": 2687,
      "واقعیت": 2688,
      "رده": 2689,
      "میپرداز": 2690,
      "واکنش": 2691,
      "خا": 2692,
      "موثر": 2693,
      "واقعشده": 2694,
      "گروههای": 2695,
      "پانویس": 2696,
      "پذیری": 2697,
      "ختی": 2698,
      "بلغ": 2699,
      "نقاشی": 2700,
      "رایی": 2701,
      "سافت": 2702,
      "نیک": 2703,
      "دانلود": 2704,
      "بول": 2705,
      "بط": 2706,
      "تقویت": 2707,
      "افظه": 2708,
      "تدری": 2709,
      "برگزاری": 2710,
      "ریز": 2711,
      "ورهای": 2712,
      "مجبور": 2713,
      "زبانهای": 2714,
      "پوشش": 2715,
      "کنان": 2716,
      "زدایی": 2717,
      "سنت": 2718,
      "مسجد": 2719,
      "برق": 2720,
      "رژیم": 2721,
      "خوانده": 2722,
      "ستاره": 2723,
      "منطق": 2724,
      "میلاد": 2725,
      "ژانویه": 2726,
      "افتاد": 2727,
      "بگذارید": 2728,
      "دش": 2729,
      "فدر": 2730,
      "۲۶": 2731,
      "میکنه": 2732,
      "مدرن": 2733,
      "دومین": 2734,
      "مصر": 2735,
      "قرمز": 2736,
      "ویش": 2737,
      "اقت": 2738,
      "سرطان": 2739,
      "فیلمبرداری": 2740,
      "چینی": 2741,
      "بگوی": 2742,
      "دانشکده": 2743,
      "اتحادی": 2744,
      "رقابت": 2745,
      "دربارهٔ": 2746,
      "بیست": 2747,
      "رستوران": 2748,
      "۰۰۰": 2749,
      "۱۹۰": 2750,
      "ریتم": 2751,
      "ایکس": 2752,
      "امتیاز": 2753,
      "اتحاد": 2754,
      "کشاورزی": 2755,
      "زمینی": 2756,
      "سیک": 2757,
      "اجرام": 2758,
      "دانست": 2759,
      "لینک": 2760,
      "ندهی": 2761,
      "اینترنتی": 2762,
      "عصر": 2763,
      "منتقل": 2764,
      "معتقد": 2765,
      "برید": 2766,
      "میلیارد": 2767,
      "نواز": 2768,
      "مهمی": 2769,
      "امکانات": 2770,
      "عین": 2771,
      "نرخ": 2772,
      "ضعی": 2773,
      "بدین": 2774,
      "حاظ": 2775,
      "برت": 2776,
      "چقدر": 2777,
      "لحاظ": 2778,
      "لهای": 2779,
      "ورز": 2780,
      "۲۷": 2781,
      "ملا": 2782,
      "نخواهد": 2783,
      "مصاح": 2784,
      "عنا": 2785,
      "سوئ": 2786,
      "دادهای": 2787,
      "استاندارد": 2788,
      "تمند": 2789,
      "مدا": 2790,
      "پین": 2791,
      "۱۳۵": 2792,
      "لندن": 2793,
      "بتواند": 2794,
      "حجم": 2795,
      "قدم": 2796,
      "ئن": 2797,
      "اوا": 2798,
      "کسبو": 2799,
      "قلب": 2800,
      "آوریل": 2801,
      "هاست": 2802,
      "نگهداری": 2803,
      "گسترده": 2804,
      "سینمایی": 2805,
      "ورودی": 2806,
      "خورشید": 2807,
      "نژ": 2808,
      "بازان": 2809,
      "تکنی": 2810,
      "پولی": 2811,
      "برخوردار": 2812,
      "ابهام": 2813,
      "متوسط": 2814,
      "اصطلاح": 2815,
      "هل": 2816,
      "دانشجوی": 2817,
      "ناد": 2818,
      "عاد": 2819,
      "هزین": 2820,
      "جایگاه": 2821,
      "عاشق": 2822,
      "تکنولوژی": 2823,
      "نوامبر": 2824,
      "جستجو": 2825,
      "اچ": 2826,
      "تاز": 2827,
      "بافت": 2828,
      "نشست": 2829,
      "ویند": 2830,
      "۲۹": 2831,
      "سکو": 2832,
      "اواخر": 2833,
      "شیدی": 2834,
      "کلمه": 2835,
      "شاد": 2836,
      "فیزیک": 2837,
      "سالم": 2838,
      "نمیتوان": 2839,
      "نامگذاری": 2840,
      "روزهای": 2841,
      "متولد": 2842,
      "خودر": 2843,
      "منح": 2844,
      "یخ": 2845,
      "کارها": 2846,
      "تومان": 2847,
      "خلاصه": 2848,
      "سامبر": 2849,
      "دسامبر": 2850,
      "عمی": 2851,
      "پال": 2852,
      "خواندن": 2853,
      "دیوار": 2854,
      "نداری": 2855,
      "مسلمان": 2856,
      "ئل": 2857,
      "مسیله": 2858,
      "توزی": 2859,
      "تعدادی": 2860,
      "ماجرا": 2861,
      "جایگزین": 2862,
      "درمانی": 2863,
      "میخواهید": 2864,
      "ایید": 2865,
      "کید": 2866,
      "فضایی": 2867,
      "نحوه": 2868,
      "کتری": 2869,
      "تد": 2870,
      "کین": 2871,
      "بدی": 2872,
      "۲۰۱۲": 2873,
      "تبری": 2874,
      "خوردن": 2875,
      "عجی": 2876,
      "گوشیهای": 2877,
      "گردان": 2878,
      "مینا": 2879,
      "پوی": 2880,
      "سرور": 2881,
      "وله": 2882,
      "نزدیکی": 2883,
      "هان": 2884,
      "همهی": 2885,
      "اینها": 2886,
      "هوای": 2887,
      "نبرد": 2888,
      "لغ": 2889,
      "حسا": 2890,
      "مایکرو": 2891,
      "محق": 2892,
      "پیر": 2893,
      "مقالههای": 2894,
      "روزانه": 2895,
      "میانه": 2896,
      "عار": 2897,
      "ارزی": 2898,
      "عزی": 2899,
      "نفت": 2900,
      "پاپ": 2901,
      "ایتالی": 2902,
      "جواب": 2903,
      "بیشترین": 2904,
      "زیکی": 2905,
      "دمو": 2906,
      "فان": 2907,
      "کانال": 2908,
      "مفهوم": 2909,
      "نیتی": 2910,
      "استودیو": 2911,
      "استراتژی": 2912,
      "تجارت": 2913,
      "تاج": 2914,
      "وو": 2915,
      "سهای": 2916,
      "ونه": 2917,
      "هرگز": 2918,
      "عاده": 2919,
      "دندان": 2920,
      "سهام": 2921,
      "بزرگتر": 2922,
      "رهبری": 2923,
      "اوتی": 2924,
      "اسرا": 2925,
      "کرونا": 2926,
      "تولد": 2927,
      "رها": 2928,
      "روایت": 2929,
      "افق": 2930,
      "سونگ": 2931,
      "آگاه": 2932,
      "چای": 2933,
      "حیوان": 2934,
      "تکرار": 2935,
      "کاربردی": 2936,
      "مارک": 2937,
      "فوریه": 2938,
      "گرایی": 2939,
      "سیستمهای": 2940,
      "پرده": 2941,
      "تجهی": 2942,
      "آسیایی": 2943,
      "استقل": 2944,
      "۲۰۱۶": 2945,
      "حافظ": 2946,
      "بهجای": 2947,
      "فارس": 2948,
      "کشوری": 2949,
      "۱۳۶": 2950,
      "طبیعت": 2951,
      "هواپیما": 2952,
      "گاری": 2953,
      "۲۰۰۸": 2954,
      "دفاع": 2955,
      "نمون": 2956,
      "یید": 2957,
      "لاک": 2958,
      "هار": 2959,
      "پیشین": 2960,
      "نفس": 2961,
      "هدایت": 2962,
      "کیو": 2963,
      "کاسی": 2964,
      "گونا": 2965,
      "پروژ": 2966,
      "توزیع": 2967,
      "وظی": 2968,
      "شهرها": 2969,
      "گوشت": 2970,
      "جامع": 2971,
      "اخلا": 2972,
      "نقره": 2973,
      "استقلال": 2974,
      "حاوی": 2975,
      "آرژان": 2976,
      "خالی": 2977,
      "ادث": 2978,
      "خانگی": 2979,
      "سمی": 2980,
      "ایتالیایی": 2981,
      "رع": 2982,
      "ویدئ": 2983,
      "شخصیتهای": 2984,
      "تأثیر": 2985,
      "سختی": 2986,
      "لط": 2987,
      "فور": 2988,
      "ادار": 2989,
      "رایج": 2990,
      "قتل": 2991,
      "رشت": 2992,
      "آسان": 2993,
      "سالی": 2994,
      "ظرفی": 2995,
      "مدالهای": 2996,
      "ارشد": 2997,
      "عهد": 2998,
      "میداد": 2999,
      "گور": 3000,
      "مخاطب": 3001,
      "گزینه": 3002,
      "آیفون": 3003,
      "هنرمندان": 3004,
      "دلایل": 3005,
      "چطور": 3006,
      "مطالعات": 3007,
      "پلیس": 3008,
      "جمهور": 3009,
      "توجهی": 3010,
      "جلب": 3011,
      "پادشاهی": 3012,
      "نمیکند": 3013,
      "میکرو": 3014,
      "ئیل": 3015,
      "مییابد": 3016,
      "پلتفرم": 3017,
      "اصول": 3018,
      "غم": 3019,
      "داشتهاست": 3020,
      "فیس": 3021,
      "ضمن": 3022,
      "نما": 3023,
      "جزایر": 3024,
      "پیوست": 3025,
      "شهی": 3026,
      "حیح": 3027,
      "خورشیدی": 3028,
      "اتحادیه": 3029,
      "همانند": 3030,
      "صلی": 3031,
      "بخوانید": 3032,
      "گویی": 3033,
      "لیک": 3034,
      "احت": 3035,
      "بدانید": 3036,
      "فرصت": 3037,
      "ثانیه": 3038,
      "۲۰۱۴": 3039,
      "اطلاعاتی": 3040,
      "صحنه": 3041,
      "فورد": 3042,
      "محافظ": 3043,
      "بوی": 3044,
      "آشن": 3045,
      "گیاهان": 3046,
      "شتر": 3047,
      "پیچ": 3048,
      "عادی": 3049,
      "صادر": 3050,
      "تابع": 3051,
      "سالها": 3052,
      "شمندان": 3053,
      "مبارزه": 3054,
      "سنگی": 3055,
      "منو": 3056,
      "لوی": 3057,
      "تئاتر": 3058,
      "بیند": 3059,
      "مقاومت": 3060,
      "باند": 3061,
      "اندروید": 3062,
      "ضروری": 3063,
      "وسایل": 3064,
      "ستار": 3065,
      "بردن": 3066,
      "آفرین": 3067,
      "چپ": 3068,
      "سازد": 3069,
      "عقب": 3070,
      "دبیر": 3071,
      "بسکت": 3072,
      "انو": 3073,
      "مدیران": 3074,
      "کرات": 3075,
      "نمایشگاه": 3076,
      "نامیده": 3077,
      "تخت": 3078,
      "عط": 3079,
      "بسکتبال": 3080,
      "حافظه": 3081,
      "میتوانیم": 3082,
      "غذاهای": 3083,
      "گلو": 3084,
      "پیشبینی": 3085,
      "مایکروسافت": 3086,
      "باستانی": 3087,
      "مجله": 3088,
      "الگوریتم": 3089,
      "خانم": 3090,
      "تخص": 3091,
      "۲۰۱۱": 3092,
      "میباشند": 3093,
      "ایو": 3094,
      "مسایل": 3095,
      "سرمایهگذاری": 3096,
      "اطمین": 3097,
      "قرارداد": 3098,
      "سفار": 3099,
      "بیمارستان": 3100,
      "اگه": 3101,
      "ویدئویی": 3102,
      "رودخانه": 3103,
      "شدم": 3104,
      "کاد": 3105,
      "متصل": 3106,
      "سق": 3107,
      "برسد": 3108,
      "ریشه": 3109,
      "ویتامین": 3110,
      "انح": 3111,
      "بیماریهای": 3112,
      "بدست": 3113,
      "معمول": 3114,
      "فعلی": 3115,
      "پیروزی": 3116,
      "مذهبی": 3117,
      "۴۰": 3118,
      "۲۰۲۰": 3119,
      "فیلمی": 3120,
      "شغل": 3121,
      "معی": 3122,
      "صاحب": 3123,
      "ابهامزدایی": 3124,
      "سوخت": 3125,
      "اقامت": 3126,
      "اسکار": 3127,
      "جدول": 3128,
      "کیت": 3129,
      "برجسته": 3130,
      "کالا": 3131,
      "جیر": 3132,
      "ویندوز": 3133,
      "چوب": 3134,
      "عبدال": 3135,
      "حدی": 3136,
      "دقیقا": 3137,
      "۱۸۹": 3138,
      "مرت": 3139,
      "داستانی": 3140,
      "اتیک": 3141,
      "اطمینان": 3142,
      "بادی": 3143,
      "نماینده": 3144,
      "خصوصیات": 3145,
      "فلسفه": 3146,
      "کشن": 3147,
      "پیچیده": 3148,
      "نشی": 3149,
      "سپاه": 3150,
      "مکانی": 3151,
      "فرار": 3152,
      "کشیده": 3153,
      "کارم": 3154,
      "دعو": 3155,
      "جرم": 3156,
      "اوقات": 3157,
      "باتری": 3158,
      "دشمن": 3159,
      "سد": 3160,
      "مزای": 3161,
      "اوکر": 3162,
      "مراکز": 3163,
      "اتصال": 3164,
      "بوک": 3165,
      "آلو": 3166,
      "فیزیکی": 3167,
      "لحظه": 3168,
      "خانههای": 3169,
      "ردی": 3170,
      "دایی": 3171,
      "سهم": 3172,
      "بهشت": 3173,
      "دوچرخهسو": 3174,
      "مربی": 3175,
      "نقشه": 3176,
      "مخت": 3177,
      "خریداری": 3178,
      "دشو": 3179,
      "همواره": 3180,
      "عباس": 3181,
      "عددی": 3182,
      "بقیه": 3183,
      "کلاسیک": 3184,
      "اسکات": 3185,
      "ریکی": 3186,
      "وسط": 3187,
      "جشن": 3188,
      "قایی": 3189,
      "دربارهی": 3190,
      "سامسونگ": 3191,
      "فرانس": 3192,
      "جاری": 3193,
      "اختلاف": 3194,
      "دهان": 3195,
      "بزنید": 3196,
      "علایم": 3197,
      "دیر": 3198,
      "بتا": 3199,
      "کاو": 3200,
      "عود": 3201,
      "پدرش": 3202,
      "کلیک": 3203,
      "کیلومتری": 3204,
      "درگیر": 3205,
      "بومی": 3206,
      "رکورد": 3207,
      "برنز": 3208,
      "مهدی": 3209,
      "گفتم": 3210,
      "اظه": 3211,
      "سرانجام": 3212,
      "سیو": 3213,
      "خودشان": 3214,
      "دادههای": 3215,
      "توپ": 3216,
      "رید": 3217,
      "قاج": 3218,
      "تیمهای": 3219,
      "ایمنی": 3220,
      "فش": 3221,
      "مستند": 3222,
      "آرژانتین": 3223,
      "عکاسی": 3224,
      "دانشمندان": 3225,
      "مبتلا": 3226,
      "ونا": 3227,
      "چربی": 3228,
      "سکونت": 3229,
      "آگاهی": 3230,
      "کلمات": 3231,
      "ظت": 3232,
      "امیر": 3233,
      "سخن": 3234,
      "ماز": 3235,
      "پاریس": 3236,
      "سیتی": 3237,
      "محبوب": 3238,
      "اظهار": 3239,
      "۲۰۰۶": 3240,
      "بورگ": 3241,
      "مبتنی": 3242,
      "امنیتی": 3243,
      "قمری": 3244,
      "اوم": 3245,
      "گرفتند": 3246,
      "۱۹۹۰": 3247,
      "مخالف": 3248,
      "گزی": 3249,
      "رویداد": 3250,
      "ارزیابی": 3251,
      "رابط": 3252,
      "تجهیزات": 3253,
      "مجاز": 3254,
      "ضع": 3255,
      "ویلی": 3256,
      "ترو": 3257,
      "بعدها": 3258,
      "معامل": 3259,
      "سرده": 3260,
      "فلو": 3261,
      "اروپایی": 3262,
      "معمولی": 3263,
      "پرچ": 3264,
      "!!": 3265,
      "زندان": 3266,
      "مسافر": 3267,
      "محدودیت": 3268,
      "یونان": 3269,
      "حکم": 3270,
      "زرد": 3271,
      "کران": 3272,
      "شناخت": 3273,
      "غلی": 3274,
      "شیرین": 3275,
      "اندا": 3276,
      "میشن": 3277,
      "دهیم": 3278,
      "مجه": 3279,
      "میآورد": 3280,
      "بحر": 3281,
      "۲۰۱۵": 3282,
      "هندی": 3283,
      "مکزیک": 3284,
      "ایشان": 3285,
      "هرچند": 3286,
      "ایمیل": 3287,
      "نفوذ": 3288,
      "کلیدی": 3289,
      "بیمه": 3290,
      "کلاه": 3291,
      "عظ": 3292,
      "ارتباطات": 3293,
      "دستگاههای": 3294,
      "انتشارات": 3295,
      "بنای": 3296,
      "گره": 3297,
      "برقرار": 3298,
      "سوئد": 3299,
      "مطالب": 3300,
      "شرکتها": 3301,
      "میرزا": 3302,
      "کتابخانه": 3303,
      "برنامهریزی": 3304,
      "خبری": 3305,
      "جاذ": 3306,
      "بپرداز": 3307,
      "مواردی": 3308,
      "مشار": 3309,
      "گرمی": 3310,
      "سوریه": 3311,
      "۲۰۱۸": 3312,
      "گونهای": 3313,
      "لایه": 3314,
      "مره": 3315,
      "طراح": 3316,
      "ئیه": 3317,
      "ژاپنی": 3318,
      "۲۰۱۳": 3319,
      "نسخهی": 3320,
      "چالش": 3321,
      "اکسی": 3322,
      "میدانی": 3323,
      "قبلا": 3324,
      "اضا": 3325,
      "هاف": 3326,
      "رفع": 3327,
      "کلید": 3328,
      "سلام": 3329,
      "ببینید": 3330,
      "۲۰۰۹": 3331,
      "یکا": 3332,
      "سراغ": 3333,
      "آشپ": 3334,
      "محله": 3335,
      "ابن": 3336,
      "بشر": 3337,
      "متغیر": 3338,
      "شیوه": 3339,
      "تابستان": 3340,
      "راتی": 3341,
      "خم": 3342,
      "اعتق": 3343,
      "نشد": 3344,
      "فراموش": 3345,
      "پیشه": 3346,
      "ثرو": 3347,
      "پایت": 3348,
      "آپ": 3349,
      "نمایید": 3350,
      "اجرایی": 3351,
      "اصر": 3352,
      "والی": 3353,
      "ئت": 3354,
      "افتخار": 3355,
      "میخواهد": 3356,
      "ورت": 3357,
      "صری": 3358,
      "قول": 3359,
      "افتد": 3360,
      "رادی": 3361,
      "اسرائیل": 3362,
      "تنی": 3363,
      "مصاحبه": 3364,
      "دانشجویان": 3365,
      "متعل": 3366,
      "آوردن": 3367,
      "۶۰": 3368,
      "انق": 3369,
      "آنتی": 3370,
      "انهها": 3371,
      "طرفداران": 3372,
      "جراحی": 3373,
      "بوس": 3374,
      "ذه": 3375,
      "مطمین": 3376,
      "بستگی": 3377,
      "مگ": 3378,
      "دمای": 3379,
      "میوه": 3380,
      "اعتراض": 3381,
      "میدانند": 3382,
      "مناسبی": 3383,
      "عبارتند": 3384,
      "قبول": 3385,
      "عن": 3386,
      "اکس": 3387,
      "ولیت": 3388,
      "اقیان": 3389,
      "اخبار": 3390,
      "نرو": 3391,
      "عوض": 3392,
      "اله": 3393,
      "خروجی": 3394,
      "شهرت": 3395,
      "نباشد": 3396,
      "صوتی": 3397,
      "جنگی": 3398,
      "قرآن": 3399,
      "خراسان": 3400,
      "مدافع": 3401,
      "انسانها": 3402,
      "حفا": 3403,
      "جین": 3404,
      "الدین": 3405,
      "رعایت": 3406,
      "سازان": 3407,
      "دعوت": 3408,
      "بهینه": 3409,
      "چندان": 3410,
      "نکرده": 3411,
      "امری": 3412,
      "آزمون": 3413,
      "امیدو": 3414,
      "اتوم": 3415,
      "مخاطبان": 3416,
      "سار": 3417,
      "۲۰۰۷": 3418,
      "۲۰۰۴": 3419,
      "احتی": 3420,
      "ایستگاه": 3421,
      "قبال": 3422,
      "نجی": 3423,
      "مؤس": 3424,
      "بتوانند": 3425,
      "نشر": 3426,
      "ژوئن": 3427,
      "محور": 3428,
      "پایگاه": 3429,
      "پاکستان": 3430,
      "فرآیند": 3431,
      "ادعا": 3432,
      "بریتانیایی": 3433,
      "گهای": 3434,
      "ارض": 3435,
      "خواهر": 3436,
      "آفریقا": 3437,
      "دره": 3438,
      "باکس": 3439,
      "ناو": 3440,
      "وام": 3441,
      "آمریکای": 3442,
      "تخم": 3443,
      "مجهز": 3444,
      "بورس": 3445,
      "پنجم": 3446,
      "جوایز": 3447,
      "منتظر": 3448,
      "انگشت": 3449,
      "بهتری": 3450,
      "مدلهای": 3451,
      "کاغذ": 3452,
      "انتهای": 3453,
      "عمیق": 3454,
      "نمایشگر": 3455,
      "منحصر": 3456,
      "جزییات": 3457,
      "شارژ": 3458,
      "۲۰۱۷": 3459,
      "آرامش": 3460,
      "وظیفه": 3461,
      "دیدگاه": 3462,
      "نژاد": 3463,
      "کیه": 3464,
      "سابقه": 3465,
      "مونی": 3466,
      "تند": 3467,
      "شیخ": 3468,
      "کمتری": 3469,
      "درستی": 3470,
      "اعتبار": 3471,
      "گیل": 3472,
      "عربستان": 3473,
      "خورده": 3474,
      "قاع": 3475,
      "استرس": 3476,
      "فرزندان": 3477,
      "شام": 3478,
      "ضبط": 3479,
      "آشنایی": 3480,
      "نجات": 3481,
      "۱۸۸": 3482,
      "دادگاه": 3483,
      "داشتم": 3484,
      "پنجر": 3485,
      "احی": 3486,
      "معتبر": 3487,
      "قز": 3488,
      "دریای": 3489,
      "نموده": 3490,
      "۲۰۱۹": 3491,
      "قطعه": 3492,
      "نمیتواند": 3493,
      "حسی": 3494,
      "آمیز": 3495,
      "صاد": 3496,
      "جمعی": 3497,
      "شاخص": 3498,
      "نظارت": 3499,
      "آدرس": 3500,
      "مداران": 3501,
      "وای": 3502,
      "آفت": 3503,
      "حاج": 3504,
      "مخلو": 3505,
      "اداری": 3506,
      "خودکار": 3507,
      "صفحات": 3508,
      "پایتخت": 3509,
      "اوکراین": 3510,
      "حین": 3511,
      "صفر": 3512,
      "ترکیبی": 3513,
      "وبگاه": 3514,
      "ظرفیت": 3515,
      "ورزشگاه": 3516,
      "هزینههای": 3517,
      "نزد": 3518,
      "عید": 3519,
      "متعلق": 3520,
      "دادهاند": 3521,
      "موقع": 3522,
      "تعطی": 3523,
      "غری": 3524,
      "صحیح": 3525,
      "تخصصی": 3526,
      "مقدس": 3527,
      "دوی": 3528,
      "سنگین": 3529,
      "هجری": 3530,
      "بیو": 3531,
      "مسیحی": 3532,
      "آسمان": 3533,
      "بهار": 3534,
      "وات": 3535,
      "مشارکت": 3536,
      "ارمنی": 3537,
      "کوس": 3538,
      "پرست": 3539,
      "پرورش": 3540,
      "پوشی": 3541,
      "عصبی": 3542,
      "سایه": 3543,
      "الکترونیکی": 3544,
      "جزو": 3545,
      "فیک": 3546,
      "کثر": 3547,
      "نگرانی": 3548,
      "اتریش": 3549,
      "آرای": 3550,
      "ربات": 3551,
      "جانی": 3552,
      "نوری": 3553,
      "فیلمنام": 3554,
      "جلوی": 3555,
      "معرض": 3556,
      "واژ": 3557,
      "زیه": 3558,
      "بره": 3559,
      "اوند": 3560,
      "ناز": 3561,
      "ستگی": 3562,
      "رساند": 3563,
      "سوپر": 3564,
      "اپی": 3565,
      "راتور": 3566,
      "اسکن": 3567,
      "پلاس": 3568,
      "جلسه": 3569,
      "فیلی": 3570,
      "ابری": 3571,
      "قطعا": 3572,
      "مراق": 3573,
      "مسکن": 3574,
      "بشه": 3575,
      "ندههای": 3576,
      "۱۹۸۰": 3577,
      "سیست": 3578,
      "کشورها": 3579,
      "تونی": 3580,
      "هیئت": 3581,
      "حوز": 3582,
      "الکتریکی": 3583,
      "نظرات": 3584,
      "جدیدترین": 3585,
      "اعتقاد": 3586,
      "بم": 3587,
      "مجدد": 3588,
      "افزود": 3589,
      "نظری": 3590,
      "تیره": 3591,
      "کنونی": 3592,
      "هیجان": 3593,
      "ابتدای": 3594,
      "بینیم": 3595,
      "سلولهای": 3596,
      "فای": 3597,
      "ضعیف": 3598,
      "نکات": 3599,
      "جات": 3600,
      "اسیون": 3601,
      "عجیب": 3602,
      "یکم": 3603,
      "خویش": 3604,
      "تمایل": 3605,
      "وهای": 3606,
      "نیازی": 3607,
      "یافتن": 3608,
      "تنهایی": 3609,
      "چههای": 3610,
      "بهمن": 3611,
      "قدرتمند": 3612,
      "بودهاند": 3613,
      "کسبوکار": 3614,
      "کردی": 3615,
      "خوانی": 3616,
      "موز": 3617,
      "کیک": 3618,
      "عق": 3619,
      "کینگ": 3620,
      "تصویب": 3621,
      "جوانی": 3622,
      "تاریخچه": 3623,
      "قاضی": 3624,
      "صرفا": 3625,
      "دایر": 3626,
      "سع": 3627,
      "میداند": 3628,
      "کنن": 3629,
      "دینی": 3630,
      "میگذارد": 3631,
      "سامانه": 3632,
      "درگیری": 3633,
      "رویک": 3634,
      "راز": 3635,
      "خواهم": 3636,
      "عمده": 3637,
      "بدهید": 3638,
      "لاند": 3639,
      "هویت": 3640,
      "محاسبه": 3641,
      "هماه": 3642,
      "جاب": 3643,
      "هادی": 3644,
      "افتاده": 3645,
      "چسب": 3646,
      "بدهد": 3647,
      "رونمایی": 3648,
      "احساسات": 3649,
      "مقدم": 3650,
      "هسته": 3651,
      "ابزارهای": 3652,
      "ژوئیه": 3653,
      "وت": 3654,
      "گیم": 3655,
      "شبه": 3656,
      "رهبر": 3657,
      "استخ": 3658,
      "راکی": 3659,
      "دیه": 3660,
      "کمت": 3661,
      "پنه": 3662,
      "۱۳۴": 3663,
      "نقد": 3664,
      "بتوانید": 3665,
      "توانسته": 3666,
      "لوب": 3667,
      "وقی": 3668,
      "تغذ": 3669,
      "۲۰۰۵": 3670,
      "حلی": 3671,
      "گنج": 3672,
      "عام": 3673,
      "سیارکهای": 3674,
      "بازسازی": 3675,
      "تگز": 3676,
      "مشخصات": 3677,
      "آد": 3678,
      "روانی": 3679,
      "لیلی": 3680,
      "یل": 3681,
      "هستم": 3682,
      "روزها": 3683,
      "تعامل": 3684,
      "امتح": 3685,
      "تپه": 3686,
      "خطوط": 3687,
      "ستری": 3688,
      "هنرمند": 3689,
      "نگاری": 3690,
      "نامههای": 3691,
      "کارکنان": 3692,
      "بیتی": 3693,
      "لع": 3694,
      "سلطان": 3695,
      "ونگ": 3696,
      "مقر": 3697,
      "دادهها": 3698,
      "تگزاس": 3699,
      "پیرا": 3700,
      "سلطنتی": 3701,
      "یونانی": 3702,
      "کودکی": 3703,
      "جغرافیایی": 3704,
      "دز": 3705,
      "استیک": 3706,
      "سرت": 3707,
      "چهره": 3708,
      "۱۰۰": 3709,
      "تبریز": 3710,
      "ادو": 3711,
      "کلیسای": 3712,
      "مطابق": 3713,
      "کارشناسی": 3714,
      "ابراهی": 3715,
      "شناختی": 3716,
      "پیمان": 3717,
      "ساحل": 3718,
      "قطعات": 3719,
      "کوههای": 3720,
      "کیف": 3721,
      "جمان": 3722,
      "کوم": 3723,
      "حیات": 3724,
      "میکردم": 3725,
      "سگ": 3726,
      "اسید": 3727,
      "حداکثر": 3728,
      "مزی": 3729,
      "متحد": 3730,
      "میخواست": 3731,
      "مجموعهای": 3732,
      "ولایت": 3733,
      "ویق": 3734,
      "طلایی": 3735,
      "شینگ": 3736,
      "استخدام": 3737,
      "داو": 3738,
      "باطی": 3739,
      "استخوان": 3740,
      "برداشت": 3741,
      "استیشن": 3742,
      "میشدند": 3743,
      "متفاوتی": 3744,
      "قطر": 3745,
      "سوار": 3746,
      "بارها": 3747,
      "حالیکه": 3748,
      "پارچه": 3749,
      "خواند": 3750,
      "انتز": 3751,
      "سازمانهای": 3752,
      "آمدن": 3753,
      "عفون": 3754,
      "حیوانات": 3755,
      "خراج": 3756,
      "نماید": 3757,
      "تصاد": 3758,
      "حفاظت": 3759,
      "موری": 3760,
      "سقوط": 3761,
      "گال": 3762,
      "حاشی": 3763,
      "ترانههای": 3764,
      "هری": 3765,
      "رسان": 3766,
      "خودروی": 3767,
      "پناه": 3768,
      "محیطی": 3769,
      "پردازش": 3770,
      "اسپانیایی": 3771,
      "ویلیام": 3772,
      "فال": 3773,
      "برندهٔ": 3774,
      "تایید": 3775,
      "هنویسان": 3776,
      "محافظت": 3777,
      "تصویری": 3778,
      "بلژیک": 3779,
      "ملل": 3780,
      "دریاچه": 3781,
      "اکشن": 3782,
      "متعددی": 3783,
      "میرفت": 3784,
      "دغ": 3785,
      "کوی": 3786,
      "آکاد": 3787,
      "تحویل": 3788,
      "محدو": 3789,
      "قار": 3790,
      "گذارند": 3791,
      "بخار": 3792,
      "علام": 3793,
      "جنبش": 3794,
      "پدید": 3795,
      "گونههای": 3796,
      "شلو": 3797,
      "اقدامات": 3798,
      "لن": 3799,
      "شیراز": 3800,
      "رنگی": 3801,
      "ینی": 3802,
      "زنجیر": 3803,
      "باکتری": 3804,
      "برخلاف": 3805,
      "هات": 3806,
      "بگیرند": 3807,
      "ازده": 3808,
      "سیاستمداران": 3809,
      "چشمه": 3810,
      "۱۹۹۲": 3811,
      "سفی": 3812,
      "معادل": 3813,
      "جب": 3814,
      "واح": 3815,
      "میافتد": 3816,
      "شف": 3817,
      "تحصیلات": 3818,
      "نروژ": 3819,
      "شغلی": 3820,
      "امتحان": 3821,
      "مراقبت": 3822,
      "فهم": 3823,
      "مبا": 3824,
      "عادت": 3825,
      "خواص": 3826,
      "دموکرات": 3827,
      "گذاران": 3828,
      "نسبتا": 3829,
      "ایفای": 3830,
      "کریست": 3831,
      "تمیز": 3832,
      "هایم": 3833,
      "ویک": 3834,
      "لز": 3835,
      "نات": 3836,
      "قهوه": 3837,
      "سفارش": 3838,
      "راههای": 3839,
      "یادداشت": 3840,
      "سلامتی": 3841,
      "لپ": 3842,
      "۱۹۹۶": 3843,
      "خلیج": 3844,
      "شاعر": 3845,
      "جنگل": 3846,
      "ویکیپدی": 3847,
      "جلد": 3848,
      "گوناگون": 3849,
      "خطی": 3850,
      "سند": 3851,
      "سوسی": 3852,
      "موسیقیدانان": 3853,
      "ترجی": 3854,
      "حاکم": 3855,
      "بیماران": 3856,
      "متمرکز": 3857,
      "متوقف": 3858,
      "تفری": 3859,
      "باتی": 3860,
      "پستان": 3861,
      "کالج": 3862,
      "پهلوی": 3863,
      "داغ": 3864,
      "یهودیان": 3865,
      "۲۰۰۲": 3866,
      "امپ": 3867,
      "۱۹۹۸": 3868,
      "تحصیلی": 3869,
      "کجا": 3870,
      "پذیرش": 3871,
      "ببرید": 3872,
      "آمی": 3873,
      "کامی": 3874,
      "رنج": 3875,
      "فرودگاههای": 3876,
      "تبلیغاتی": 3877,
      "رادیو": 3878,
      "اقیانوس": 3879,
      "سوئیس": 3880,
      "منزل": 3881,
      "مشهد": 3882,
      "۷۰": 3883,
      "دشوار": 3884,
      "کاخ": 3885,
      "عناصر": 3886,
      "قلبی": 3887,
      "شمارهٔ": 3888,
      "آموز": 3889,
      "راد": 3890,
      "ختن": 3891,
      "مهمان": 3892,
      "بنوی": 3893,
      "تویی": 3894,
      "خیال": 3895,
      "استارتاپ": 3896,
      "مهای": 3897,
      "صدی": 3898,
      "بندر": 3899,
      "تازگی": 3900,
      "تض": 3901,
      "۳۵": 3902,
      "بکهای": 3903,
      "رویدادهای": 3904,
      "کای": 3905,
      "صلح": 3906,
      "هرچه": 3907,
      "بهم": 3908,
      "نیازهای": 3909,
      "سبزی": 3910,
      "کاما": 3911,
      "برود": 3912,
      "ناسا": 3913,
      "روبرو": 3914,
      "ارتباطی": 3915,
      "میه": 3916,
      "مخلوط": 3917,
      "دیدار": 3918,
      "حقوقی": 3919,
      "سینه": 3920,
      "قابلی": 3921,
      "علاقهم": 3922,
      "جوش": 3923,
      "نشود": 3924,
      "اهو": 3925,
      "بودجه": 3926,
      "کمیل": 3927,
      "لاگ": 3928,
      "بلاک": 3929,
      "پرانتز": 3930,
      "جانبی": 3931,
      "کتور": 3932,
      "کارمندان": 3933,
      "پیشرفته": 3934,
      "نامزد": 3935,
      "دارایی": 3936,
      "بدان": 3937,
      "اکو": 3938,
      "تجربی": 3939,
      "محمود": 3940,
      "لحظ": 3941,
      "اسکی": 3942,
      "نوشید": 3943,
      "همون": 3944,
      "۱۳۹۵": 3945,
      "آلود": 3946,
      "طیف": 3947,
      "تام": 3948,
      "زمستان": 3949,
      "داروهای": 3950,
      "بعدا": 3951,
      "فات": 3952,
      "میروند": 3953,
      "ابله": 3954,
      "گیگ": 3955,
      "مأ": 3956,
      "سازنده": 3957,
      "هافبکهای": 3958,
      "طو": 3959,
      "خاند": 3960,
      "جستجوی": 3961,
      "سینمای": 3962,
      "گلکسی": 3963,
      "گلی": 3964,
      "رقص": 3965,
      "رضایت": 3966,
      "شکار": 3967,
      "عای": 3968,
      "تجزیه": 3969,
      "صندلی": 3970,
      "فتو": 3971,
      "بده": 3972,
      "طلب": 3973,
      "سومین": 3974,
      "ایرلند": 3975,
      "استخراج": 3976,
      "بهروز": 3977,
      "مزایای": 3978,
      "فراوانی": 3979,
      "زام": 3980,
      "روستاها": 3981,
      "موزیک": 3982,
      "قیب": 3983,
      "شیری": 3984,
      "کمبود": 3985,
      "آبان": 3986,
      "ناگه": 3987,
      "فرمول": 3988,
      "عهی": 3989,
      "کربن": 3990,
      "آذر": 3991,
      "اختصاصی": 3992,
      "درگذشته": 3993,
      "گیاهی": 3994,
      "ویدیویی": 3995,
      "جیمز": 3996,
      "تغذیه": 3997,
      "۱۹۹۹": 3998,
      "اقتباس": 3999,
      "صرب": 4000,
      "بروید": 4001,
      "قالعاده": 4002,
      "نگاهی": 4003,
      "عثمانی": 4004,
      "سونی": 4005,
      "وجه": 4006,
      "استقبال": 4007,
      "مشاوره": 4008,
      "نگارخانه": 4009,
      "رقم": 4010,
      "ارک": 4011,
      "ابعاد": 4012,
      "مسیح": 4013,
      "دروازه": 4014,
      "کنفرانس": 4015,
      "تکمیل": 4016,
      "الهای": 4017,
      "ظرف": 4018,
      "ظم": 4019,
      "اهد": 4020,
      "راهاندازی": 4021,
      "انتقاد": 4022,
      "دستو": 4023,
      "الجی": 4024,
      "هندو": 4025,
      "غیره": 4026,
      "۸۰": 4027,
      "قص": 4028,
      "بختی": 4029,
      "قیاس": 4030,
      "فیه": 4031,
      "لشکر": 4032,
      "شگفت": 4033,
      "تهدید": 4034,
      "اکران": 4035,
      "دهندگان": 4036,
      "گس": 4037,
      "والدین": 4038,
      "مدافعان": 4039,
      "اینه": 4040,
      "کوب": 4041,
      "بودیم": 4042,
      "رنگهای": 4043,
      "مینمای": 4044,
      "میکشد": 4045,
      "آفریقایی": 4046,
      "میشوید": 4047,
      "ارزان": 4048,
      "تپ": 4049,
      "شینی": 4050,
      "گاو": 4051,
      "بهاشتباه": 4052,
      "مجارستان": 4053,
      "نگران": 4054,
      "نیازمند": 4055,
      "شها": 4056,
      "کارآفرین": 4057,
      "پروت": 4058,
      "گرفتهاند": 4059,
      "۲۰۰۳": 4060,
      "برمی": 4061,
      "برگشت": 4062,
      "امروزی": 4063,
      "ابتدایی": 4064,
      "روحانی": 4065,
      "وده": 4066,
      "حادث": 4067,
      "مانع": 4068,
      "کوچکتر": 4069,
      "قربانی": 4070,
      "ساختن": 4071,
      "غام": 4072,
      "امسال": 4073,
      "دیوید": 4074,
      "فیف": 4075,
      "گرافی": 4076,
      "سنج": 4077,
      "نوزاد": 4078,
      "غذای": 4079,
      "بله": 4080,
      "پت": 4081,
      "بنیاد": 4082,
      "باران": 4083,
      "نشسته": 4084,
      "قلمرو": 4085,
      "الهام": 4086,
      "مقابله": 4087,
      "اوج": 4088,
      "اتور": 4089,
      "فراوان": 4090,
      "وست": 4091,
      "گرافیک": 4092,
      "ششم": 4093,
      "سویی": 4094,
      "مخفی": 4095,
      "میزند": 4096,
      "عوارض": 4097,
      "تقریباً": 4098,
      "کارخانه": 4099,
      "دامنه": 4100,
      "موم": 4101,
      "لابی": 4102,
      "مردی": 4103,
      "صادق": 4104,
      "تنگ": 4105,
      "اسفند": 4106,
      "کست": 4107,
      "دراز": 4108,
      "بازیها": 4109,
      "فدراسیون": 4110,
      "شیعه": 4111,
      "میگفت": 4112,
      "خواسته": 4113,
      "خانوادگی": 4114,
      "پرتغال": 4115,
      "باسی": 4116,
      "هنرپیشه": 4117,
      "پدیده": 4118,
      "فتح": 4119,
      "ساکن": 4120,
      "کشید": 4121,
      "سادگی": 4122,
      "ادن": 4123,
      "بابا": 4124,
      "ابتلا": 4125,
      "دکم": 4126,
      "دشت": 4127,
      "جمل": 4128,
      "ناه": 4129,
      "اسما": 4130,
      "نرانی": 4131,
      "میخورد": 4132,
      "سخنرانی": 4133,
      "پنهان": 4134,
      "هستهای": 4135,
      "مدرک": 4136,
      "کارگردانان": 4137,
      "روبه": 4138,
      "ولین": 4139,
      "قدیم": 4140,
      "نشین": 4141,
      "حلقه": 4142,
      "مونت": 4143,
      "فکری": 4144,
      "ویچ": 4145,
      "طال": 4146,
      "منطقی": 4147,
      "پیرامون": 4148,
      "درختان": 4149,
      "اینگونه": 4150,
      "یونی": 4151,
      "وعده": 4152,
      "شهرو": 4153,
      "عمد": 4154,
      "سوالات": 4155,
      "کردید": 4156,
      "تدریس": 4157,
      "ویرایش": 4158,
      "میانگین": 4159,
      "اثبات": 4160,
      "مازندر": 4161,
      "راس": 4162,
      "والیبال": 4163,
      "قسم": 4164,
      "تکآهنگ": 4165,
      "مشرو": 4166,
      "قند": 4167,
      "کلمبیا": 4168,
      "فروشی": 4169,
      "ضعف": 4170,
      "مؤسسه": 4171,
      "مهارتهای": 4172,
      "میپردازد": 4173,
      "محدوده": 4174,
      "رومی": 4175,
      "زنگ": 4176,
      "قاجار": 4177,
      "قسمتهای": 4178,
      "تخری": 4179,
      "کارهایی": 4180,
      "زستان": 4181,
      "مدنی": 4182,
      "هیل": 4183,
      "مطلق": 4184,
      "ابراهیم": 4185,
      "ماسا": 4186,
      "پرتاب": 4187,
      "مایکل": 4188,
      "شههای": 4189,
      "سانتی": 4190,
      "بارداری": 4191,
      "اشکال": 4192,
      "مجوز": 4193,
      "اسکاتلند": 4194,
      "مادرش": 4195,
      "سلاح": 4196,
      "مبلغ": 4197,
      "پرسی": 4198,
      "خرداد": 4199,
      "زمست": 4200,
      "ممن": 4201,
      "ایلی": 4202,
      "خواهی": 4203,
      "۲۰۰۱": 4204,
      "...": 4205,
      "میزبان": 4206,
      "ارتقا": 4207,
      "متد": 4208,
      "مناسبت": 4209,
      "منی": 4210,
      "وردی": 4211,
      "میتوانست": 4212,
      "میبرند": 4213,
      "ظهور": 4214,
      "ئین": 4215,
      "کمیته": 4216,
      "خاندان": 4217,
      "مکم": 4218,
      "مقالات": 4219,
      "برنج": 4220,
      "کلیه": 4221,
      "سالانه": 4222,
      "فیلسو": 4223,
      "نگاران": 4224,
      "مذکور": 4225,
      "کرمانشاه": 4226,
      "۱۸۷": 4227,
      "توافق": 4228,
      "مرده": 4229,
      "کترین": 4230,
      "مقصد": 4231,
      "هنرهای": 4232,
      "ذهنی": 4233,
      "سریعتر": 4234,
      "شهریور": 4235,
      "طع": 4236,
      "ترجیح": 4237,
      "ترسناک": 4238,
      "شست": 4239,
      "پایدار": 4240,
      "دانی": 4241,
      "کوان": 4242,
      "تخیلی": 4243,
      "صاب": 4244,
      "فلزی": 4245,
      "صدر": 4246,
      "ارات": 4247,
      "احترام": 4248,
      "مسیول": 4249,
      "۱۹۷۰": 4250,
      "پروتی": 4251,
      "روزه": 4252,
      "۹۰": 4253,
      "نسخههای": 4254,
      "۱۹۸۸": 4255,
      "فیلتر": 4256,
      "آشکار": 4257,
      "آیین": 4258,
      "عقی": 4259,
      "دورههای": 4260,
      "خروج": 4261,
      "زایی": 4262,
      "تفکر": 4263,
      "معاصر": 4264,
      "آلی": 4265,
      "فیلد": 4266,
      "الکترونیک": 4267,
      "آنجلس": 4268,
      "جمعآوری": 4269,
      "اعدام": 4270,
      "صندوق": 4271,
      "نمک": 4272,
      "هماکنون": 4273,
      "مشکلی": 4274,
      "سکه": 4275,
      "۱۹۶۰": 4276,
      "کردهاید": 4277,
      "آفرینی": 4278,
      "شاعران": 4279,
      "محققان": 4280,
      "ایتد": 4281,
      "بازر": 4282,
      "کوک": 4283,
      "زمستانی": 4284,
      "نهاد": 4285,
      "حمام": 4286,
      "پید": 4287,
      "متی": 4288,
      "الیز": 4289,
      "آکادمی": 4290,
      "تنیس": 4291,
      "خاور": 4292,
      "لوازم": 4293,
      "معاون": 4294,
      "سایتهای": 4295,
      "زودی": 4296,
      "شرایطی": 4297,
      "جار": 4298,
      "صربستان": 4299,
      "فرودگاهی": 4300,
      "۱۹۹۴": 4301,
      "کاست": 4302,
      "مایز": 4303,
      "تنوع": 4304,
      "طعم": 4305,
      "گند": 4306,
      "افسرد": 4307,
      "قوه": 4308,
      "خداوند": 4309,
      "مسلمانان": 4310,
      "ظاهری": 4311,
      "ریچ": 4312,
      "روشی": 4313,
      "کانی": 4314,
      "جذابی": 4315,
      "بچهها": 4316,
      "رمانهای": 4317,
      "گرفتهاست": 4318,
      "۳۱": 4319,
      "تفسیر": 4320,
      "بهش": 4321,
      "۳۶": 4322,
      "حرارت": 4323,
      "افسردگی": 4324,
      "ببین": 4325,
      "طرز": 4326,
      "دیدم": 4327,
      "خوری": 4328,
      "آفتاب": 4329,
      "اخی": 4330,
      "انگیزه": 4331,
      "۱۸۶": 4332,
      "رایانه": 4333,
      "اسر": 4334,
      "تخریب": 4335,
      "ارتی": 4336,
      "کمربند": 4337,
      "کتب": 4338,
      "آواز": 4339,
      "جاذبههای": 4340,
      "هال": 4341,
      "فهرستهای": 4342,
      "شهید": 4343,
      "سالن": 4344,
      "کمو": 4345,
      "قهرمانان": 4346,
      "کسن": 4347,
      "شیو": 4348,
      "پایانی": 4349,
      "قابلیتهای": 4350,
      "سیت": 4351,
      "سنی": 4352,
      "همسرش": 4353,
      "طرفی": 4354,
      "اسناد": 4355,
      "کشیدن": 4356,
      "عزیز": 4357,
      "ضربه": 4358,
      "اسماعی": 4359,
      "اندام": 4360,
      "افکار": 4361,
      "وظایف": 4362,
      "نمیکنند": 4363,
      "اردو": 4364,
      "مواق": 4365,
      "استادان": 4366,
      "نفره": 4367,
      "زوم": 4368,
      "هواپیمایی": 4369,
      "منتقدان": 4370,
      "رسانههای": 4371,
      "گونگی": 4372,
      "همگی": 4373,
      "چاق": 4374,
      "تکه": 4375,
      "آسمانی": 4376,
      "روانشناسی": 4377,
      "تماشا": 4378,
      "کوچکی": 4379,
      "یونایتد": 4380,
      "اً": 4381,
      "انگار": 4382,
      "طرفدار": 4383,
      "مقداری": 4384,
      "داستانهای": 4385,
      "آورند": 4386,
      "جون": 4387,
      "متعدد": 4388,
      "آزمایشگاه": 4389,
      "مخال": 4390,
      "غنی": 4391,
      "پرسید": 4392,
      "خاطرات": 4393,
      "کپی": 4394,
      "سوس": 4395,
      "فزاری": 4396,
      "تحریک": 4397,
      "جورج": 4398,
      "نماد": 4399,
      "۲۰۲۱": 4400,
      "ایرانیان": 4401,
      "اتفا": 4402,
      "قبیل": 4403,
      "گردشگران": 4404,
      "قراری": 4405,
      "معاهده": 4406,
      "چگونگی": 4407,
      "اردیبهشت": 4408,
      "فوقالعاده": 4409,
      "امله": 4410,
      "۱۹۹۷": 4411,
      "هیدرو": 4412,
      "کاش": 4413,
      "مینگ": 4414,
      "تشویق": 4415,
      "باشم": 4416,
      "اخلاقی": 4417,
      "آنجایی": 4418,
      "کتابی": 4419,
      "کنین": 4420,
      "جاست": 4421,
      "وبلاگ": 4422,
      "ماسک": 4423,
      "چراغ": 4424,
      "عمدتا": 4425,
      "تحمل": 4426,
      "بحران": 4427,
      "آقا": 4428,
      "واشینگ": 4429,
      "میسازد": 4430,
      "هشد": 4431,
      "ورا": 4432,
      "دانشگاهی": 4433,
      "بساز": 4434,
      "معنا": 4435,
      "داشتهاند": 4436,
      "مایع": 4437,
      "ملاقات": 4438,
      "میآیند": 4439,
      "بدل": 4440,
      "اتفاقی": 4441,
      "واشینگتن": 4442,
      "سیا": 4443,
      "اخیرا": 4444,
      "ازون": 4445,
      "ندارید": 4446,
      "اندکی": 4447,
      "انگلیس": 4448,
      "بتی": 4449,
      "کون": 4450,
      "معلم": 4451,
      "سکی": 4452,
      "پیوسته": 4453,
      "پیشگیری": 4454,
      "التها": 4455,
      "واسطه": 4456,
      "احتمالی": 4457,
      "کیم": 4458,
      "نویسان": 4459,
      "فاقد": 4460,
      "۳۷": 4461,
      "گش": 4462,
      "رئیسجمهور": 4463,
      "مینویس": 4464,
      "حاک": 4465,
      "راج": 4466,
      "لینگ": 4467,
      "اترین": 4468,
      "گردن": 4469,
      "پردازی": 4470,
      "هفتم": 4471,
      "بستر": 4472,
      "فرور": 4473,
      "نشانه": 4474,
      "ملک": 4475,
      "الهی": 4476,
      "کوتاهی": 4477,
      "پرونده": 4478,
      "ترافیک": 4479,
      "گوار": 4480,
      "گیگاب": 4481,
      "امضا": 4482,
      "سازمانی": 4483,
      "گیلان": 4484,
      "کارایی": 4485,
      "قلی": 4486,
      "سقف": 4487,
      "حملات": 4488,
      "تدوین": 4489,
      "اذ": 4490,
      "انان": 4491,
      "تزی": 4492,
      "ظاهرا": 4493,
      "اشیا": 4494,
      "پیامبر": 4495,
      "افزوده": 4496,
      "رومانی": 4497,
      "۳۴": 4498,
      "۱۹۹۱": 4499,
      "استراحت": 4500,
      "جاع": 4501,
      "دیپ": 4502,
      "محض": 4503,
      "گرافیکی": 4504,
      "اعداد": 4505,
      "پروژههای": 4506,
      "نتو": 4507,
      "هنویسی": 4508,
      "یی": 4509,
      "میشی": 4510,
      "رهای": 4511,
      "کمترین": 4512,
      "استاندار": 4513,
      "موضوعات": 4514,
      "سعودی": 4515,
      "میتونید": 4516,
      "دال": 4517,
      "گونی": 4518,
      "مبنی": 4519,
      "موسس": 4520,
      "اوست": 4521,
      "کارشناسان": 4522,
      "سیاستمدار": 4523,
      "وود": 4524,
      "نواحی": 4525,
      "مقامات": 4526,
      "پهن": 4527,
      "وقوع": 4528,
      "عکاس": 4529,
      "پزشکان": 4530,
      "فرماندهی": 4531,
      "خن": 4532,
      "امن": 4533,
      "سران": 4534,
      "برایتان": 4535,
      "۳۸": 4536,
      "میدهیم": 4537,
      "شکن": 4538,
      "فروردین": 4539,
      "ژنت": 4540,
      "شناگران": 4541,
      "اضافی": 4542,
      "لنز": 4543,
      "۱۹۹۳": 4544,
      "نکرد": 4545,
      "ماً": 4546,
      "معدنی": 4547,
      "مهاجمان": 4548,
      "بیاید": 4549,
      "آزار": 4550,
      "بهکار": 4551,
      "نوس": 4552,
      "معامله": 4553,
      "خودمان": 4554,
      "مالیات": 4555,
      "آنقدر": 4556,
      "بازیگری": 4557,
      "مقیاس": 4558,
      "فرمانده": 4559,
      "افتتا": 4560,
      "اکث": 4561,
      "منظم": 4562,
      "بکار": 4563,
      "یورو": 4564,
      "کابل": 4565,
      "۱۹۹۵": 4566,
      "تاژ": 4567,
      "بهداشتی": 4568,
      "ریسک": 4569,
      "دستیابی": 4570,
      "دانشگاههای": 4571,
      "جعبه": 4572,
      "شباه": 4573,
      "غرق": 4574,
      "موهای": 4575,
      "مایش": 4576,
      "ویرجی": 4577,
      "پرداخته": 4578,
      "جبه": 4579,
      "الح": 4580,
      "چیزهایی": 4581,
      "تماشای": 4582,
      "اتمام": 4583,
      "خونه": 4584,
      "فاعی": 4585,
      "مناف": 4586,
      "استو": 4587,
      "متنوع": 4588,
      "ایندی": 4589,
      "میدانست": 4590,
      "بهدست": 4591,
      "پژوهشگران": 4592,
      "خشونت": 4593,
      "نامی": 4594,
      "میزن": 4595,
      "شانس": 4596,
      "بهشمار": 4597,
      "رهبران": 4598,
      "کهن": 4599,
      "دما": 4600,
      "خدای": 4601,
      "کاراک": 4602,
      "کمونیست": 4603,
      "امین": 4604,
      "ساختمانها": 4605,
      "نوشیدنی": 4606,
      "قم": 4607,
      "خسته": 4608,
      "دوچرخهسواران": 4609,
      "ایتی": 4610,
      "میگذ": 4611,
      "سطوح": 4612,
      "گفتگو": 4613,
      "پروتیین": 4614,
      "مرداد": 4615,
      "فق": 4616,
      "صاف": 4617,
      "امو": 4618,
      "یکسان": 4619,
      "رانندگی": 4620,
      "کنده": 4621,
      "سیگن": 4622,
      "۱۹۸۴": 4623,
      "محکوم": 4624,
      "استر": 4625,
      "شری": 4626,
      "اخترا": 4627,
      "کیلومترمربع": 4628,
      "توییتر": 4629,
      "بگی": 4630,
      "کمال": 4631,
      "منص": 4632,
      "۴۵": 4633,
      "مخالفت": 4634,
      "ایفا": 4635,
      "نادر": 4636,
      "ابوال": 4637,
      "نوک": 4638,
      "لبنان": 4639,
      "مسئله": 4640,
      "موسسه": 4641,
      "آری": 4642,
      "زندگینامه": 4643,
      "فنلاند": 4644,
      "زوج": 4645,
      "قیقی": 4646,
      "آگ": 4647,
      "سله": 4648,
      "میدهید": 4649,
      "۳۹": 4650,
      "مقادی": 4651,
      "اتمی": 4652,
      "مدن": 4653,
      "دورهٔ": 4654,
      "لهی": 4655,
      "تعادل": 4656,
      "آلودگی": 4657,
      "اواس": 4658,
      "؟!": 4659,
      "میو": 4660,
      "دیوان": 4661,
      "ابو": 4662,
      "ویکیپدیای": 4663,
      "رویکرد": 4664,
      "نظم": 4665,
      "خوشحال": 4666,
      "مکانهای": 4667,
      "خوراکی": 4668,
      "نانو": 4669,
      "ندهای": 4670,
      "بیس": 4671,
      "سرگرمی": 4672,
      "عضویت": 4673,
      "صرفه": 4674,
      "مدرضا": 4675,
      "کلان": 4676,
      "بیستم": 4677,
      "آژان": 4678,
      "موشک": 4679,
      "دروغ": 4680,
      "سیاره": 4681,
      "مض": 4682,
      "ناطی": 4683,
      "حادثه": 4684,
      "تحول": 4685,
      "بالغ": 4686,
      "وکیل": 4687,
      "اگان": 4688,
      "آفریقای": 4689,
      "بون": 4690,
      "میری": 4691,
      "ساحلی": 4692,
      "میتونه": 4693,
      "پورت": 4694,
      "مدارس": 4695,
      "کلیسا": 4696,
      "خنک": 4697,
      "بصورت": 4698,
      "اندازهگیری": 4699,
      "زیستی": 4700,
      "میخواهند": 4701,
      "مگر": 4702,
      "سوسیالی": 4703,
      "فاز": 4704,
      "باشگاههای": 4705,
      "اهیم": 4706,
      "اتفاقات": 4707,
      "لول": 4708,
      "مسیری": 4709,
      "دیدی": 4710,
      "گیتار": 4711,
      "تأیید": 4712,
      "فونی": 4713,
      "دبیرستان": 4714,
      "پذیرفت": 4715,
      "سعید": 4716,
      "گول": 4717,
      "حرفه": 4718,
      "سلسله": 4719,
      "مداوم": 4720,
      "عفونت": 4721,
      "فیسبوک": 4722,
      "اسن": 4723,
      "برقراری": 4724,
      "سیب": 4725,
      "کاتولی": 4726,
      "مترو": 4727,
      "تأمین": 4728,
      "انش": 4729,
      "هشدار": 4730,
      "عبدالله": 4731,
      "مفاهیم": 4732,
      "سیلو": 4733,
      "نحو": 4734,
      "ناشر": 4735,
      "بازداشت": 4736,
      "گرچه": 4737,
      "زدهم": 4738,
      "شویی": 4739,
      "دانمارک": 4740,
      "بردار": 4741,
      "راهنمایی": 4742,
      "برعهده": 4743,
      "تکنیک": 4744,
      "تربیت": 4745,
      "رابرت": 4746,
      "برطرف": 4747,
      "اضطرا": 4748,
      "برن": 4749,
      "بغ": 4750,
      "مغناطی": 4751,
      "پنجره": 4752,
      "قایقر": 4753,
      "بلوچ": 4754,
      "محبوبیت": 4755,
      "حج": 4756,
      "مازندران": 4757,
      "ویز": 4758,
      "شکلی": 4759,
      "محو": 4760,
      "سوء": 4761,
      "اشغال": 4762,
      "خشم": 4763,
      "مسافران": 4764,
      "بایست": 4765,
      "نوار": 4766,
      "سازندگان": 4767,
      "دوستی": 4768,
      "عرو": 4769,
      "برلین": 4770,
      "فلسط": 4771,
      "شاخه": 4772,
      "خطا": 4773,
      "شیشه": 4774,
      "یهود": 4775,
      "توصیفشده": 4776,
      "نمونههای": 4777,
      "ادغام": 4778,
      "انهی": 4779,
      "درونی": 4780,
      "ترش": 4781,
      "دیس": 4782,
      "سرباز": 4783,
      "چس": 4784,
      "آلبومهای": 4785,
      "پستانداران": 4786,
      "تنظیمات": 4787,
      "عنصر": 4788,
      "ضرب": 4789,
      "گراد": 4790,
      "ولا": 4791,
      "مرورگر": 4792,
      "فرش": 4793,
      "آمازون": 4794,
      "هزاران": 4795,
      "گمان": 4796,
      "منطقهای": 4797,
      "۲۰۲۲": 4798,
      "لور": 4799,
      "تولیدی": 4800,
      "۱۹۸۹": 4801,
      "اثرات": 4802,
      "جاوا": 4803,
      "بماند": 4804,
      "صاری": 4805,
      "جنگهای": 4806,
      "فتیم": 4807,
      "سفارت": 4808,
      "ژانر": 4809,
      "حه": 4810,
      "شاپ": 4811,
      "پارام": 4812,
      "ذرات": 4813,
      "سلو": 4814,
      "نماز": 4815,
      "کرم": 4816,
      "برون": 4817,
      "متع": 4818,
      "پرنده": 4819,
      "قسمتی": 4820,
      "موقعی": 4821,
      "یزد": 4822,
      "شادی": 4823,
      "مجددا": 4824,
      "ارید": 4825,
      "لیگا": 4826,
      "اوز": 4827,
      "فجر": 4828,
      "رغم": 4829,
      "عسل": 4830,
      "شوهر": 4831,
      "تخفیف": 4832,
      "عمق": 4833,
      "ارن": 4834,
      "مقادیر": 4835,
      "پیشتر": 4836,
      "خلاق": 4837,
      "سنس": 4838,
      "گمینا": 4839,
      "بریم": 4840,
      "خالص": 4841,
      "لمان": 4842,
      "برگزی": 4843,
      "گواهی": 4844,
      "خانهای": 4845,
      "آه": 4846,
      "گوست": 4847,
      "مختص": 4848,
      "دلاری": 4849,
      "شهرکها": 4850,
      "عظیم": 4851,
      "فراتر": 4852,
      "هستی": 4853,
      "بهنظر": 4854,
      "تزریق": 4855,
      "مارکتی": 4856,
      "نمایند": 4857,
      "بالاترین": 4858,
      "انتخابی": 4859,
      "نبوده": 4860,
      "گرفتم": 4861,
      "اکبر": 4862,
      "سلطنت": 4863,
      "چهل": 4864,
      "تیپ": 4865,
      "جوری": 4866,
      "برندهای": 4867,
      "کاراکتر": 4868,
      "هشتم": 4869,
      "تاون": 4870,
      "تلگرام": 4871,
      "عکسهای": 4872,
      "امپراتور": 4873,
      "همکاران": 4874,
      "قاشق": 4875,
      "شهرک": 4876,
      "شهروندان": 4877,
      "مندی": 4878,
      "کنندگی": 4879,
      "گوشه": 4880,
      "لطف": 4881,
      "مینه": 4882,
      "ماست": 4883,
      "مجت": 4884,
      "اشتبا": 4885,
      "نوین": 4886,
      "اتومبیل": 4887,
      "برقی": 4888,
      "یتبار": 4889,
      "مستقی": 4890,
      "دفع": 4891,
      "میمی": 4892,
      "رول": 4893,
      "حرکات": 4894,
      "حساس": 4895,
      "واض": 4896,
      "تریلر": 4897,
      "یکبار": 4898,
      "دیدنی": 4899,
      "بالاخ": 4900,
      "زیبای": 4901,
      "موریت": 4902,
      "گذاشتن": 4903,
      "ویژهای": 4904,
      "امع": 4905,
      "گفتن": 4906,
      "فلی": 4907,
      "اطر": 4908,
      "مسیولیت": 4909,
      "برنامهنویسی": 4910,
      "غار": 4911,
      "سختا": 4912,
      "پیتر": 4913,
      "قایق": 4914,
      "بیدار": 4915,
      "کاملاً": 4916,
      "مینویسد": 4917,
      "قیر": 4918,
      "همینطور": 4919,
      "اسپی": 4920,
      "پردازنده": 4921,
      "مارکتینگ": 4922,
      "محمدرضا": 4923,
      "افزون": 4924,
      "بنگ": 4925,
      "پنی": 4926,
      "کلو": 4927,
      "بولی": 4928,
      "ویان": 4929,
      "بالاخره": 4930,
      "ماد": 4931,
      "هالی": 4932,
      "الکس": 4933,
      "حضرت": 4934,
      "ازای": 4935,
      "پذیرفته": 4936,
      "۱۸۵": 4937,
      "استدل": 4938,
      "مبل": 4939,
      "پیگیری": 4940,
      "ارزشمند": 4941,
      "ئم": 4942,
      "پلیاستیشن": 4943,
      "الجزایر": 4944,
      "بلغارستان": 4945,
      "صبر": 4946,
      "دستگیر": 4947,
      "۱۹۸۶": 4948,
      "کانس": 4949,
      "نیه": 4950,
      "ماژ": 4951,
      "یاتا": 4952,
      "شایع": 4953,
      "۳۲": 4954,
      "ریح": 4955,
      "هایشان": 4956,
      "بدنه": 4957,
      "لید": 4958,
      "گناه": 4959,
      "معرو": 4960,
      "تیمی": 4961,
      "گستردهای": 4962,
      "لیه": 4963,
      "قضیه": 4964,
      "هره": 4965,
      "ملتهای": 4966,
      "نیش": 4967,
      "کیلوگرم": 4968,
      "پرسش": 4969,
      "آبادی": 4970,
      "هاکی": 4971,
      "دگر": 4972,
      "آهنگسازان": 4973,
      "مکمل": 4974,
      "شرط": 4975,
      "خرم": 4976,
      "میرسید": 4977,
      "تایل": 4978,
      "موتورهای": 4979,
      "گرای": 4980,
      "الا": 4981,
      "کمیسیون": 4982,
      "ستارگان": 4983,
      "شکم": 4984,
      "میدانید": 4985,
      "نویسندگی": 4986,
      "واج": 4987,
      "خارجه": 4988,
      "وحشت": 4989,
      "سوز": 4990,
      "دارویی": 4991,
      "میماند": 4992,
      "پودر": 4993,
      "موند": 4994,
      "گرایش": 4995,
      "اکسید": 4996,
      "دانه": 4997,
      "شینه": 4998,
      "متاسف": 4999,
      "معده": 5000,
      "فلوری": 5001,
      "اتهام": 5002,
      "گردند": 5003,
      "شمشیر": 5004,
      "بگذارد": 5005,
      "عقل": 5006,
      "خوار": 5007,
      "کاربردهای": 5008,
      "خوزستان": 5009,
      "زودتر": 5010,
      "مواقع": 5011,
      "۱۹۷۶": 5012,
      "لپتاپ": 5013,
      "بترین": 5014,
      "نف": 5015,
      "متناسب": 5016,
      "پویان": 5017,
      "خوابی": 5018,
      "دیپلم": 5019,
      "قطار": 5020,
      "استن": 5021,
      "اوراق": 5022,
      "راحتتر": 5023,
      "علامت": 5024,
      "انیمیشن": 5025,
      "کشان": 5026,
      "ضه": 5027,
      "بخواهید": 5028,
      "مطبو": 5029,
      "اضطراب": 5030,
      "خونی": 5031,
      "اخذ": 5032,
      "جزء": 5033,
      "تاریک": 5034,
      "کارل": 5035,
      "همراهی": 5036,
      "کردستان": 5037,
      "فعالان": 5038,
      "جفت": 5039,
      "یوتی": 5040,
      "مشکلاتی": 5041,
      "بخشد": 5042,
      "نصف": 5043,
      "تومی": 5044,
      "سیستان": 5045,
      "راننده": 5046,
      "هرگونه": 5047,
      "پرستی": 5048,
      "فهمی": 5049,
      "۴۸": 5050,
      "وطنهای": 5051,
      "فالو": 5052,
      "نوآوری": 5053,
      "جاس": 5054,
      "مینماید": 5055,
      "فرق": 5056,
      "راهنمای": 5057,
      "کارولین": 5058,
      "معاهدههای": 5059,
      "پژوهشی": 5060,
      "شهرکهای": 5061,
      "نوازندگان": 5062,
      "اختراع": 5063,
      "زمینهای": 5064,
      "آبشار": 5065,
      "خودکشی": 5066,
      "تروری": 5067,
      "کسون": 5068,
      "زیم": 5069,
      "افل": 5070,
      "دبی": 5071,
      "کارگران": 5072,
      "ئون": 5073,
      "ژیمن": 5074,
      "بریزید": 5075,
      "میشویم": 5076,
      "رن": 5077,
      "خمینی": 5078,
      "بوت": 5079,
      "چهای": 5080,
      "هواگر": 5081,
      "بلافاصله": 5082,
      "سرویسهای": 5083,
      "فیبر": 5084,
      "کارا": 5085,
      "حاشیه": 5086,
      "آشپز": 5087,
      "شاهی": 5088,
      "ریب": 5089,
      "مستقر": 5090,
      "درصدی": 5091,
      "رسانه": 5092,
      "وضع": 5093,
      "مدیرعامل": 5094,
      "درواقع": 5095,
      "سربازان": 5096,
      "عدالت": 5097,
      "برم": 5098,
      "جداگانه": 5099,
      "مرحل": 5100,
      "شیوع": 5101,
      "کریس": 5102,
      "بذ": 5103,
      "دادهاست": 5104,
      "تجربهی": 5105,
      "نوت": 5106,
      "کنشهای": 5107,
      "بگیریم": 5108,
      "کرهای": 5109,
      "دانسته": 5110,
      "چوبی": 5111,
      "پادکست": 5112,
      "گیرنده": 5113,
      "درخ": 5114,
      "۱۹۷۲": 5115,
      "آت": 5116,
      "جمعه": 5117,
      "ممنوع": 5118,
      "اشک": 5119,
      "رشتههای": 5120,
      "میگیری": 5121,
      "اندون": 5122,
      "تصرف": 5123,
      "بازارهای": 5124,
      "بانکی": 5125,
      "مسلح": 5126,
      "هنویس": 5127,
      "۳۳": 5128,
      "بیرونی": 5129,
      "عرصه": 5130,
      "دهها": 5131,
      "دادها": 5132,
      "خواهان": 5133,
      "پروتکل": 5134,
      "طوف": 5135,
      "توکیو": 5136,
      "آرامی": 5137,
      "اپیک": 5138,
      "عروس": 5139,
      "تبل": 5140,
      "سیاستهای": 5141,
      "برایش": 5142,
      "جلسات": 5143,
      "ارف": 5144,
      "مالکیت": 5145,
      "تخمین": 5146,
      "بخاطر": 5147,
      "رأ": 5148,
      "خستگی": 5149,
      "فدرال": 5150,
      "عرف": 5151,
      "مدارک": 5152,
      "خطرناک": 5153,
      "ملت": 5154,
      "متاسفانه": 5155,
      "سرشماریشده": 5156,
      "شیرینی": 5157,
      "سوا": 5158,
      "نامز": 5159,
      "فیلمبرداریشده": 5160,
      "فاط": 5161,
      "دلم": 5162,
      "خاموش": 5163,
      "مغول": 5164,
      "ریچارد": 5165,
      "خلاقیت": 5166,
      "واری": 5167,
      "اشعار": 5168,
      "سکونتگاههای": 5169,
      "معلوم": 5170,
      "ایدههای": 5171,
      "شبانه": 5172,
      "۱۹۸۷": 5173,
      "فیلمنامه": 5174,
      "چاه": 5175,
      "امارات": 5176,
      "نمایندگی": 5177,
      "نابود": 5178,
      "مادی": 5179,
      "پلو": 5180,
      "کالری": 5181,
      "فلوریدا": 5182,
      "دنباله": 5183,
      "هدیه": 5184,
      "انف": 5185,
      "زخم": 5186,
      "جهای": 5187,
      "تخصص": 5188,
      "عرضهی": 5189,
      "آوی": 5190,
      "ازدهم": 5191,
      "شوی": 5192,
      "۱۹۸۵": 5193,
      "ایلین": 5194,
      "مزد": 5195,
      "کشفشده": 5196,
      "۱۹۸۲": 5197,
      "استونی": 5198,
      "مالک": 5199,
      "دف": 5200,
      "کولی": 5201,
      "قاعد": 5202,
      "صفحههای": 5203,
      "اخلاق": 5204,
      "توضیحات": 5205,
      "کریم": 5206,
      "دادگان": 5207,
      "نمیتوانند": 5208,
      "الکترو": 5209,
      "عقیده": 5210,
      "جانوران": 5211,
      "تحقیقاتی": 5212,
      "ریو": 5213,
      "پاش": 5214,
      "معمار": 5215,
      "ظهر": 5216,
      "اولویت": 5217,
      "لوله": 5218,
      "محسن": 5219,
      "ولت": 5220,
      "اوهای": 5221,
      "اندیشه": 5222,
      "اسکری": 5223,
      "پش": 5224,
      "لار": 5225,
      "فرستاد": 5226,
      "بابت": 5227,
      "نهم": 5228,
      "تالار": 5229,
      "۱۹۶۸": 5230,
      "ضاع": 5231,
      "ببرد": 5232,
      "خراب": 5233,
      "عاشقانه": 5234,
      "دختران": 5235,
      "تجدید": 5236,
      "جبهه": 5237,
      "پرتو": 5238,
      "سیستمعامل": 5239,
      "اسک": 5240,
      "خودتون": 5241,
      "جستان": 5242,
      "سیلی": 5243,
      "مشخصی": 5244,
      "ایوان": 5245,
      "فرانک": 5246,
      "لبخ": 5247,
      "اسماعیل": 5248,
      "اینچی": 5249,
      "ریس": 5250,
      "فراز": 5251,
      "مات": 5252,
      "انقلابی": 5253,
      "دارن": 5254,
      "درسی": 5255,
      "مقطع": 5256,
      "جوامع": 5257,
      "دانشجو": 5258,
      "لوا": 5259,
      "ئینگ": 5260,
      "هواوی": 5261,
      "ماندن": 5262,
      "کتابها": 5263,
      "لینو": 5264,
      "جک": 5265,
      "۷۵": 5266,
      "آشپزی": 5267,
      "کارمند": 5268,
      "آمدهاست": 5269,
      "افتتاح": 5270,
      "رفتم": 5271,
      "مسئول": 5272,
      "جنبه": 5273,
      "ترم": 5274,
      "واضح": 5275,
      "دادم": 5276,
      "عموم": 5277,
      "بید": 5278,
      "پوشیده": 5279,
      "عاط": 5280,
      "مغزی": 5281,
      "میبینید": 5282,
      "صار": 5283,
      "خند": 5284,
      "زاس": 5285,
      "لذا": 5286,
      "برگزیده": 5287,
      "سمه": 5288,
      "دوازده": 5289,
      "نازی": 5290,
      "فرانسیس": 5291,
      "موقت": 5292,
      "صحن": 5293,
      "الد": 5294,
      "کنگره": 5295,
      "الگوی": 5296,
      "ملکه": 5297,
      "مغناطیسی": 5298,
      "چمن": 5299,
      "سپرده": 5300,
      "بلوچستان": 5301,
      "زبانی": 5302,
      "خودداری": 5303,
      "شل": 5304,
      "پاییز": 5305,
      "راضی": 5306,
      "جنایی": 5307,
      "زرت": 5308,
      "چراکه": 5309,
      "بزرگسال": 5310,
      "حساسیت": 5311,
      "اژ": 5312,
      "استانبول": 5313,
      "سطحی": 5314,
      "گرین": 5315,
      "اکسیژن": 5316,
      "عالم": 5317,
      "شباهت": 5318,
      "مردمی": 5319,
      "آست": 5320,
      "تصادفی": 5321,
      "گردیده": 5322,
      "قین": 5323,
      "نگارش": 5324,
      "تدریج": 5325,
      "یوس": 5326,
      "ایلینوی": 5327,
      "تکآهنگهای": 5328,
      "مذهب": 5329,
      "نکند": 5330,
      "درحالیکه": 5331,
      "مهندس": 5332,
      "برش": 5333,
      "چستر": 5334,
      "بدهند": 5335,
      "پویانمایی": 5336,
      "مجسمه": 5337,
      "بگم": 5338,
      "رفتارهای": 5339,
      "پولیس": 5340,
      "پوستی": 5341,
      "گربه": 5342,
      "موفقی": 5343,
      "خسرو": 5344,
      "ایمان": 5345,
      "پارسی": 5346,
      "ختری": 5347,
      "تکامل": 5348,
      "طرحهای": 5349,
      "لقب": 5350,
      "هیدر": 5351,
      "غیرقابل": 5352,
      "ولز": 5353,
      "برساند": 5354,
      "ویض": 5355,
      "منصوب": 5356,
      "امان": 5357,
      "مجمع": 5358,
      "میخواهیم": 5359,
      "گیگابایت": 5360,
      "مشاغ": 5361,
      "تروی": 5362,
      "ویا": 5363,
      "کافه": 5364,
      "شویم": 5365,
      "حقیقی": 5366,
      "شیدن": 5367,
      "جدایی": 5368,
      "معاد": 5369,
      "دلخواه": 5370,
      "زیردریایی": 5371,
      "برادران": 5372,
      "غه": 5373,
      "مهی": 5374,
      "میدادند": 5375,
      "ارای": 5376,
      "دوربینهای": 5377,
      "معتقدند": 5378,
      "آرزو": 5379,
      "کفش": 5380,
      "مجل": 5381,
      "میکنن": 5382,
      "چشمان": 5383,
      "۱۴۰": 5384,
      "شتاب": 5385,
      "سرای": 5386,
      "بوکس": 5387,
      "میگرفت": 5388,
      "نوشتههای": 5389,
      "احمدی": 5390,
      "کارولینای": 5391,
      "منا": 5392,
      "فرنگی": 5393,
      "حسگر": 5394,
      "پتر": 5395,
      "متهم": 5396,
      "هاید": 5397,
      "العاده": 5398,
      "ختم": 5399,
      "شاهزاده": 5400,
      "اوضاع": 5401,
      "سوالی": 5402,
      "۱۹۵۰": 5403,
      "آگهی": 5404,
      "بوند": 5405,
      "۶۵": 5406,
      "عیان": 5407,
      "عضلات": 5408,
      "فاصل": 5409,
      "استدلال": 5410,
      "سپری": 5411,
      "شنیدن": 5412,
      "زخ": 5413,
      "حیا": 5414,
      "شیلی": 5415,
      "سبزیجات": 5416,
      "بدو": 5417,
      "پیچید": 5418,
      "شنیده": 5419,
      "پروی": 5420,
      "ارزهای": 5421,
      "اینحال": 5422,
      "فرمانرو": 5423,
      "راستای": 5424,
      "لک": 5425,
      "موضوعی": 5426,
      "نرمافزارهای": 5427,
      "دوری": 5428,
      "عاش": 5429,
      "جاد": 5430,
      "ترکیبات": 5431,
      "روحی": 5432,
      "دودی": 5433,
      "دیجیتالی": 5434,
      "دریافتکنندگان": 5435,
      "هماهنگی": 5436,
      "حات": 5437,
      "کنکور": 5438,
      "انعط": 5439,
      "مارتین": 5440,
      "خودت": 5441,
      "توسعهی": 5442,
      "خرج": 5443,
      "فولاد": 5444,
      "۴۷": 5445,
      "عدهای": 5446,
      "منافع": 5447,
      "شرف": 5448,
      "فایلهای": 5449,
      "تکیه": 5450,
      "چنانچه": 5451,
      "تعهد": 5452,
      "لغو": 5453,
      "کاک": 5454,
      "قیمتی": 5455,
      "ماجر": 5456,
      "متخصصان": 5457,
      "فرستاده": 5458,
      "فریم": 5459,
      "سنجی": 5460,
      "زاویه": 5461,
      "هوی": 5462,
      "چوست": 5463,
      "مسائل": 5464,
      "قاسم": 5465,
      "تصفیه": 5466,
      "کاب": 5467,
      "قضایی": 5468,
      "سانی": 5469,
      "آژانس": 5470,
      "ماساچوست": 5471,
      "۱۹۷۹": 5472,
      "تهیهکننده": 5473,
      "انعطاف": 5474,
      "قدمت": 5475,
      "بهروزرسانی": 5476,
      "وک": 5477,
      "مهمتر": 5478,
      "تناب": 5479,
      "توانی": 5480,
      "شرکتی": 5481,
      "جزئی": 5482,
      "رینگ": 5483,
      "پذی": 5484,
      "پایینتر": 5485,
      "۴۹": 5486,
      "نقط": 5487,
      "مترجم": 5488,
      "برگرفته": 5489,
      "طای": 5490,
      "مجازات": 5491,
      "محقق": 5492,
      "کشتیگیر": 5493,
      "چندی": 5494,
      "ثروت": 5495,
      "زمینهی": 5496,
      "میآمد": 5497,
      "پنل": 5498,
      "کدهای": 5499,
      "توقف": 5500,
      "لانکا": 5501,
      "قرص": 5502,
      "پایتون": 5503,
      "ایزو": 5504,
      "رمانتیک": 5505,
      "زیستشناسی": 5506,
      "۱۳۰": 5507,
      "منحل": 5508,
      "زندانی": 5509,
      "نواخت": 5510,
      "متشکل": 5511,
      "گرجستان": 5512,
      "سیگار": 5513,
      "دارا": 5514,
      "تعلق": 5515,
      "اسطور": 5516,
      "قش": 5517,
      "مخصوصا": 5518,
      "قرون": 5519,
      "قزوین": 5520,
      "الجیبیتی": 5521,
      "ابند": 5522,
      "قاره": 5523,
      "ستاد": 5524,
      "اپلیکیشنهای": 5525,
      "گذراند": 5526,
      "وضو": 5527,
      "کارش": 5528,
      "آلا": 5529,
      "ناپذیر": 5530,
      "تضمین": 5531,
      "کلاسهای": 5532,
      "فینال": 5533,
      "نمیدان": 5534,
      "نایی": 5535,
      "سرکوب": 5536,
      "پنجاه": 5537,
      "مبنای": 5538,
      "آنا": 5539,
      "پروتئ": 5540,
      "حوادث": 5541,
      "۱۹۸۱": 5542,
      "کانزاس": 5543,
      "میگذرد": 5544,
      "گوید": 5545,
      "زمینههای": 5546,
      "میبین": 5547,
      "تصمیمگیری": 5548,
      "جانشین": 5549,
      "۱۹۶۴": 5550,
      "جبران": 5551,
      "خاصیت": 5552,
      "وزیران": 5553,
      "محکم": 5554,
      "برف": 5555,
      "درا": 5556,
      "کنندهی": 5557,
      "پکی": 5558,
      "قطعی": 5559,
      "نظامیان": 5560,
      "پیکسل": 5561,
      "نوجوانان": 5562,
      "ورزشکار": 5563,
      "اوهایو": 5564,
      "وحشی": 5565,
      "ایام": 5566,
      "خوشم": 5567,
      "ادوارد": 5568,
      "خوند": 5569,
      "مردمان": 5570,
      "ایس": 5571,
      "برنامهی": 5572,
      "نوجوان": 5573,
      "سکوت": 5574,
      "نمودار": 5575,
      "بوه": 5576,
      "فاش": 5577,
      "املی": 5578,
      "ابراز": 5579,
      "جرسی": 5580,
      "کوف": 5581,
      "۱۹۸۳": 5582,
      "طنز": 5583,
      "ثبتنشده": 5584,
      "چیزهای": 5585,
      "شفاف": 5586,
      "قبر": 5587,
      "عملیاتی": 5588,
      "سیارکها": 5589,
      "فیلمنامهنویسان": 5590,
      "میکنی": 5591,
      "ندارم": 5592,
      "نتوانست": 5593,
      "راهآهن": 5594,
      "فره": 5595,
      "روزمره": 5596,
      "دستورال": 5597,
      "بانان": 5598,
      "اطع": 5599,
      "هورمون": 5600,
      "نهایتا": 5601,
      "راجع": 5602,
      "شکسته": 5603,
      "ایات": 5604,
      "مربوطه": 5605,
      "پلا": 5606,
      "قدیمیترین": 5607,
      "شدیم": 5608,
      "نداره": 5609,
      "سیلوانیا": 5610,
      "یاری": 5611,
      "روده": 5612,
      "رسیدگی": 5613,
      "گالی": 5614,
      "کردهایم": 5615,
      "همدان": 5616,
      "پخت": 5617,
      "حک": 5618,
      "میبینیم": 5619,
      "لباسهای": 5620,
      "درحال": 5621,
      "رقابتهای": 5622,
      "صرافی": 5623,
      "لیو": 5624,
      "گیاگان": 5625,
      "تحریم": 5626,
      "شمسی": 5627,
      "گزینههای": 5628,
      "چنگ": 5629,
      "چهارمین": 5630,
      "احدا": 5631,
      "شواهد": 5632,
      "شترین": 5633,
      "غلام": 5634,
      "رفتاری": 5635,
      "زور": 5636,
      "نهادهای": 5637,
      "حسینی": 5638,
      "مزیت": 5639,
      "تسلط": 5640,
      "شورش": 5641,
      "تزیین": 5642,
      "جغرافیای": 5643,
      "ویژن": 5644,
      "روت": 5645,
      "اجاره": 5646,
      "تمدن": 5647,
      "تعویض": 5648,
      "لوت": 5649,
      "باما": 5650,
      "تجربیات": 5651,
      "تغییراتی": 5652,
      "آنی": 5653,
      "آزمایشی": 5654,
      "احداث": 5655,
      "کارآفرینان": 5656,
      "برنامهای": 5657,
      "رئ": 5658,
      "زله": 5659,
      "بازرگانی": 5660,
      "حش": 5661,
      "ترام": 5662,
      "سوری": 5663,
      "نیوجرسی": 5664,
      "۱۹۷۸": 5665,
      "پیروز": 5666,
      "سوزی": 5667,
      "قوت": 5668,
      "سازهها": 5669,
      "کورا": 5670,
      "ریخته": 5671,
      "ثیرات": 5672,
      "جزیی": 5673,
      "التهاب": 5674,
      "تایی": 5675,
      "ساکنان": 5676,
      "فشر": 5677,
      "کارگر": 5678,
      "کاتولیک": 5679,
      "پیکر": 5680,
      "مونه": 5681,
      "۴۶": 5682,
      "مشاغل": 5683,
      "دلی": 5684,
      "لاوی": 5685,
      "سواری": 5686,
      "ساختمانهای": 5687,
      "اوه": 5688,
      "ژنرال": 5689,
      "طوب": 5690,
      "هواپیمای": 5691,
      "استث": 5692,
      "رقیب": 5693,
      "بزند": 5694,
      "اجتناب": 5695,
      "شخصیتی": 5696,
      "تحری": 5697,
      "اتوبوس": 5698,
      "آلوده": 5699,
      "وزی": 5700,
      "تول": 5701,
      "پرچم": 5702,
      "واحدهای": 5703,
      "کلام": 5704,
      "وزنه": 5705,
      "اختلالات": 5706,
      "اهر": 5707,
      "نوبت": 5708,
      "فارغال": 5709,
      "موجودات": 5710,
      "لوک": 5711,
      "گرداند": 5712,
      "برتری": 5713,
      "سیما": 5714,
      "پردازان": 5715,
      "پتان": 5716,
      "معین": 5717,
      "استانهای": 5718,
      "بهدلیل": 5719,
      "مدتها": 5720,
      "پیروی": 5721,
      "دوله": 5722,
      "اندونزی": 5723,
      "۵۵": 5724,
      "پروتئین": 5725,
      "آستان": 5726,
      "صدور": 5727,
      "تیز": 5728,
      "رسانهها": 5729,
      "هایتان": 5730,
      "اجباری": 5731,
      "تقویم": 5732,
      "خاورمیانه": 5733,
      "چرب": 5734,
      "گود": 5735,
      "دانشمند": 5736,
      "میزد": 5737,
      "درمورد": 5738,
      "پارامتر": 5739,
      "پیت": 5740,
      "کارفر": 5741,
      "ماهیت": 5742,
      "تندو": 5743,
      "مجید": 5744,
      "بهایی": 5745,
      "بلیط": 5746,
      "جسم": 5747,
      "احتمالاً": 5748,
      "دستیار": 5749,
      "ایق": 5750,
      "فناوریهای": 5751,
      "مذا": 5752,
      "پنسیلوانیا": 5753,
      "دستورالعمل": 5754,
      "چشماند": 5755,
      "بگویم": 5756,
      "سیگنال": 5757,
      "شکایت": 5758,
      "ادهای": 5759,
      "نمیدهد": 5760,
      "جیل": 5761,
      "میگذارند": 5762,
      "گردی": 5763,
      "خنده": 5764,
      "حذفی": 5765,
      "دفاعی": 5766,
      "تکنیکهای": 5767,
      "جنین": 5768,
      "ضان": 5769,
      "محاص": 5770,
      "کمون": 5771,
      "نمایشی": 5772,
      "حامی": 5773,
      "اثری": 5774,
      "متمایز": 5775,
      "حروف": 5776,
      "رادیویی": 5777,
      "محلول": 5778,
      "روبهرو": 5779,
      "نادیده": 5780,
      "وقایع": 5781,
      "تحسین": 5782,
      "مسعود": 5783,
      "ردیف": 5784,
      "ماهو": 5785,
      "نمیشوند": 5786,
      "تاکسی": 5787,
      "محاصره": 5788,
      "گفتهی": 5789,
      "مطلوب": 5790,
      "کائو": 5791,
      "ویزای": 5792,
      "ببینیم": 5793,
      "طلاق": 5794,
      "ساری": 5795,
      "قفل": 5796,
      "زیرساخت": 5797,
      "بزن": 5798,
      "اتا": 5799,
      "کمپین": 5800,
      "اسلح": 5801,
      "۹۹": 5802,
      "عاطفی": 5803,
      "سرنوشت": 5804,
      "مدیری": 5805,
      "هستانی": 5806,
      "فردا": 5807,
      "توماس": 5808,
      "نینتندو": 5809,
      "ذی": 5810,
      "۱۹۷۴": 5811,
      "میبایست": 5812,
      "معاملات": 5813,
      "نشانههای": 5814,
      "طا": 5815,
      "ویسی": 5816,
      "معیار": 5817,
      "هستن": 5818,
      "بایر": 5819,
      "یکپارچه": 5820,
      "آموزان": 5821,
      "یخچال": 5822,
      "درج": 5823,
      "ریش": 5824,
      "تلقی": 5825,
      "۱۹۴۰": 5826,
      "نفوس": 5827,
      "دکمه": 5828,
      "تورم": 5829,
      "متقاضی": 5830,
      "اقوام": 5831,
      "اسپر": 5832,
      "رسانهای": 5833,
      "بعداً": 5834,
      "کوهستانی": 5835,
      "خدایان": 5836,
      "نال": 5837,
      "جالبی": 5838,
      "هرمز": 5839,
      "معبد": 5840,
      "سورا": 5841,
      "وصل": 5842,
      "میدانیم": 5843,
      "علیرضا": 5844,
      "پیاز": 5845,
      "ورگ": 5846,
      "همجنس": 5847,
      "مادرید": 5848,
      "شال": 5849,
      "کده": 5850,
      "ماها": 5851,
      "سریلانکا": 5852,
      "انتان": 5853,
      "نداشتند": 5854,
      "مجری": 5855,
      "پردازندههای": 5856,
      "پرسپولیس": 5857,
      "شهرستانهای": 5858,
      "پذیرد": 5859,
      "میرساند": 5860,
      "شهرداریهای": 5861,
      "لوس": 5862,
      "فشرده": 5863,
      "قطب": 5864,
      "هماهنگ": 5865,
      "میاد": 5866,
      "مواف": 5867,
      "سوره": 5868,
      "جعفر": 5869,
      "زهای": 5870,
      "لیف": 5871,
      "قق": 5872,
      "میانی": 5873,
      "فیلسوفان": 5874,
      "خوشب": 5875,
      "خرده": 5876,
      "صدها": 5877,
      "برز": 5878,
      "امد": 5879,
      "اینطور": 5880,
      "مصط": 5881,
      "کرواسی": 5882,
      "بصری": 5883,
      "تاکید": 5884,
      "میخواند": 5885,
      "امواج": 5886,
      "برنامهها": 5887,
      "کاناد": 5888,
      "کنگ": 5889,
      "نرمافزاری": 5890,
      "تکوین": 5891,
      "مرطوب": 5892,
      "پیادهسازی": 5893,
      "سینا": 5894,
      "نیکو": 5895,
      "دغدغ": 5896,
      "چن": 5897,
      "شریف": 5898,
      "تیمتر": 5899,
      "حوزههای": 5900,
      "اجزای": 5901,
      "شماست": 5902,
      "بنیانگذار": 5903,
      "ترابری": 5904,
      "فترین": 5905,
      "گرما": 5906,
      "مدعی": 5907,
      "کندی": 5908,
      "مفهومی": 5909,
      "فارغ": 5910,
      "معنوی": 5911,
      "تعمیر": 5912,
      "بنویسید": 5913,
      "لوئی": 5914,
      "ماجراجویی": 5915,
      "مولکول": 5916,
      "میشنا": 5917,
      "وسیع": 5918,
      "بام": 5919,
      "مدام": 5920,
      "جت": 5921,
      "ساسانی": 5922,
      "میخور": 5923,
      "بدنی": 5924,
      "چارلز": 5925,
      "نداریم": 5926,
      "مجاور": 5927,
      "اواسط": 5928,
      "سانتیمتر": 5929,
      "تسلیم": 5930,
      "سلیمان": 5931,
      "رحم": 5932,
      "بنیادی": 5933,
      "کوری": 5934,
      "۱۹۷۵": 5935,
      "میشناس": 5936,
      "مرزی": 5937,
      "مباح": 5938,
      "۹۸": 5939,
      "۱۹۷۳": 5940,
      "متون": 5941,
      "خمیر": 5942,
      "ستهای": 5943,
      "مکتب": 5944,
      "پسند": 5945,
      "۴۴": 5946,
      "تولیدکنندگان": 5947,
      "میگی": 5948,
      "سس": 5949,
      "نمیتوانید": 5950,
      "معدن": 5951,
      "مپ": 5952,
      "لینوکس": 5953,
      "ذوب": 5954,
      "خوردگی": 5955,
      "عطر": 5956,
      "بهر": 5957,
      "گویش": 5958,
      "تلاشهای": 5959,
      "مذاکره": 5960,
      "المان": 5961,
      "صلاح": 5962,
      "پیانو": 5963,
      "۱۹۲۰": 5964,
      "مشتر": 5965,
      "۱۹۴۵": 5966,
      "چندانی": 5967,
      "وضوح": 5968,
      "بیبی": 5969,
      "میلان": 5970,
      "بگویید": 5971,
      "دانشگاهها": 5972,
      "صعود": 5973,
      "روئینگ": 5974,
      "اا": 5975,
      "کانون": 5976,
      ".،": 5977,
      "راتب": 5978,
      "نوروز": 5979,
      "۱۹۷۷": 5980,
      "نشریه": 5981,
      "میآورند": 5982,
      "عملا": 5983,
      "پیج": 5984,
      "مطلع": 5985,
      "ایالتی": 5986,
      "فلسطین": 5987,
      "بیانی": 5988,
      "اسد": 5989,
      "بگوییم": 5990,
      "اندازهی": 5991,
      "بمب": 5992,
      "گوئه": 5993,
      "استون": 5994,
      "کاروان": 5995,
      "تیاتر": 5996,
      "یوتیوب": 5997,
      "نود": 5998,
      "صفوی": 5999,
      "محمدی": 6000,
      "نقص": 6001,
      "انبار": 6002,
      "اِ": 6003,
      "میزنند": 6004,
      "اریو": 6005,
      "شدگان": 6006,
      "سازگار": 6007,
      "رسنجی": 6008,
      "اکثریت": 6009,
      "دیتا": 6010,
      "نمید": 6011,
      "آپدی": 6012,
      "سرشار": 6013,
      "تاسیس": 6014,
      "پسرش": 6015,
      "عباسی": 6016,
      "ثمر": 6017,
      "افس": 6018,
      "نیای": 6019,
      "کابین": 6020,
      "تاجیک": 6021,
      "آنرا": 6022,
      "محبوبترین": 6023,
      "هییت": 6024,
      "ژیکی": 6025,
      "فوری": 6026,
      "جنب": 6027,
      "کوچه": 6028,
      "آرامگاه": 6029,
      "خوشبخت": 6030,
      "کاز": 6031,
      "اسکریپت": 6032,
      "فند": 6033,
      "حسابداری": 6034,
      "پرین": 6035,
      "حاجی": 6036,
      "جسمی": 6037,
      "ویرجینیا": 6038,
      "میشیگان": 6039,
      "انتقام": 6040,
      "یار": 6041,
      "بینایی": 6042,
      "نظرسنجی": 6043,
      "همسایه": 6044,
      "ماژول": 6045,
      "مدرس": 6046,
      "مکانیک": 6047,
      "لبخند": 6048,
      "ادعای": 6049,
      "فروشگاههای": 6050,
      "ازش": 6051,
      "پات": 6052,
      "ببرند": 6053,
      "هوشی": 6054,
      "تپههای": 6055,
      "حدودی": 6056,
      "بختیاری": 6057,
      "مهار": 6058,
      "فلز": 6059,
      "الملل": 6060,
      "دیابت": 6061,
      "فیلمهایی": 6062,
      "مشورت": 6063,
      "گرامی": 6064,
      "میروی": 6065,
      "کمان": 6066,
      "اینتل": 6067,
      "کراسی": 6068,
      "مخاب": 6069,
      "ناگهانی": 6070,
      "تعطیلات": 6071,
      "مظ": 6072,
      "کارآمد": 6073,
      "دراین": 6074,
      "مغان": 6075,
      "بیلی": 6076,
      "تقسیمات": 6077,
      "رونق": 6078,
      "توده": 6079,
      "محوطه": 6080,
      "دودمان": 6081,
      "۱۹۷۱": 6082,
      "انداخت": 6083,
      "جواد": 6084,
      "تقاضا": 6085,
      "پیشنهادی": 6086,
      "گنبد": 6087,
      "دشمنان": 6088,
      "سرگرم": 6089,
      "رضوی": 6090,
      "مینام": 6091,
      "اوی": 6092,
      "موسوم": 6093,
      "باریک": 6094,
      "۱۹۳۰": 6095,
      "لوکس": 6096,
      "نامهٔ": 6097,
      "رباتیک": 6098,
      "هول": 6099,
      "ناصر": 6100,
      "جانب": 6101,
      "انترین": 6102,
      "سنای": 6103,
      "استعداد": 6104,
      "قله": 6105,
      "تبا": 6106,
      "۱۸۰": 6107,
      "واگذار": 6108,
      "سواحل": 6109,
      "پد": 6110,
      "آرایش": 6111,
      "واکسن": 6112,
      "مراکش": 6113,
      "امریکن": 6114,
      "تران": 6115,
      "ژنتیکی": 6116,
      "شوالی": 6117,
      "درگاه": 6118,
      "۱۹۶۹": 6119,
      "عاتی": 6120,
      "لمس": 6121,
      "رسد": 6122,
      "حمید": 6123,
      "دیسک": 6124,
      "بیاوری": 6125,
      "آسیای": 6126,
      "ماههای": 6127,
      "طراحان": 6128,
      "ارتمان": 6129,
      "فلا": 6130,
      "فلسفی": 6131,
      "پتانسیل": 6132,
      "مرتبه": 6133,
      "باله": 6134,
      "خبرگزاری": 6135,
      "بریج": 6136,
      "سازهای": 6137,
      "حیاتی": 6138,
      "ماهیان": 6139,
      "بهدنبال": 6140,
      "تهیهکنندگان": 6141,
      "ترور": 6142,
      "ساعات": 6143,
      "علاقهمند": 6144,
      "رایانهای": 6145,
      "ارایهی": 6146,
      "عصبانی": 6147,
      "بوندس": 6148,
      "تایلند": 6149,
      "نیل": 6150,
      "لیمو": 6151,
      "مجی": 6152,
      "بهنام": 6153,
      "غلط": 6154,
      "میرسند": 6155,
      "آرایه": 6156,
      "معاو": 6157,
      "طبقهبندی": 6158,
      "اعظم": 6159,
      "۸۵": 6160,
      "ریاضیات": 6161,
      "رطو": 6162,
      "مقررات": 6163,
      "باقیمانده": 6164,
      "برانگیز": 6165,
      "اورا": 6166,
      "آتی": 6167,
      "محاسبات": 6168,
      "ویژگیها": 6169,
      "امیدوار": 6170,
      "خس": 6171,
      "حیاط": 6172,
      "اومد": 6173,
      "نبر": 6174,
      "درخش": 6175,
      "غذی": 6176,
      "دعا": 6177,
      "لکه": 6178,
      "دامن": 6179,
      "افسان": 6180,
      "مکر": 6181,
      "گرفتگی": 6182,
      "حرکتی": 6183,
      "جنبههای": 6184,
      "هخام": 6185,
      "مرجع": 6186,
      "گرایان": 6187,
      "ایا": 6188,
      "ثروتمند": 6189,
      "رأی": 6190,
      "بهویژه": 6191,
      "رطوبت": 6192,
      "ساسی": 6193,
      "بهخاطر": 6194,
      "رکوردز": 6195,
      "یادآوری": 6196,
      "پون": 6197,
      "دستان": 6198,
      "مالزی": 6199,
      "فرکانس": 6200,
      "نوبل": 6201,
      "قوم": 6202,
      "متداول": 6203,
      "صدق": 6204,
      "آهنگساز": 6205,
      "نع": 6206,
      "۹۶": 6207,
      "ایب": 6208,
      "کانادایی": 6209,
      "نجان": 6210,
      "همگانی": 6211,
      "استرالی": 6212,
      "برادرش": 6213,
      "۹۵": 6214,
      "آبهای": 6215,
      "ثال": 6216,
      "غالبا": 6217,
      "تایپ": 6218,
      "کاپی": 6219,
      "کاملی": 6220,
      "کامپیوتری": 6221,
      "دستهبندی": 6222,
      "الکل": 6223,
      "خاست": 6224,
      "متال": 6225,
      "عیسی": 6226,
      "لویی": 6227,
      "زوی": 6228,
      "بق": 6229,
      "معرفیشده": 6230,
      "بارسل": 6231,
      "تجمع": 6232,
      "مریم": 6233,
      "کلن": 6234,
      "وریت": 6235,
      "بیگ": 6236,
      "شعار": 6237,
      "چل": 6238,
      "مقدمه": 6239,
      "ترامپ": 6240,
      "لواکی": 6241,
      "کته": 6242,
      "طلای": 6243,
      "قزاق": 6244,
      "۱۹۴۸": 6245,
      "بهادار": 6246,
      "رمزنگاری": 6247,
      "وابستگی": 6248,
      "توجی": 6249,
      "پرهی": 6250,
      "تاریکی": 6251,
      "تقاض": 6252,
      "بنام": 6253,
      "شاگر": 6254,
      "ناراحتی": 6255,
      "منش": 6256,
      "بایی": 6257,
      "سرقت": 6258,
      "منه": 6259,
      "تنش": 6260,
      "اخراج": 6261,
      "رزمی": 6262,
      "حدس": 6263,
      "کناری": 6264,
      "قصه": 6265,
      "رواج": 6266,
      "نسبی": 6267,
      "ناگهان": 6268,
      "خانهها": 6269,
      "خواستار": 6270,
      "میبیند": 6271,
      "جادو": 6272,
      "اشان": 6273,
      "اسکندر": 6274,
      "آرد": 6275,
      "هخامنشی": 6276,
      "۱۹۴۴": 6277,
      "گزینی": 6278,
      "مگاپیک": 6279,
      "شیکا": 6280,
      "عذ": 6281,
      "یکو": 6282,
      "نوزدهم": 6283,
      "برآورد": 6284,
      "ایکسباکس": 6285,
      "ایزی": 6286,
      "وسیعی": 6287,
      "عفونی": 6288,
      "اعتراضات": 6289,
      "قاعده": 6290,
      "آرت": 6291,
      "جذابیت": 6292,
      "امتداد": 6293,
      "ویید": 6294,
      "خشکی": 6295,
      "سروده": 6296,
      "پاداش": 6297,
      "کاوش": 6298,
      "زلی": 6299,
      "تجاوز": 6300,
      "بخشید": 6301,
      "حافظهی": 6302,
      "مغذی": 6303,
      "نیمی": 6304,
      "خره": 6305,
      "آگوست": 6306,
      "زهرا": 6307,
      "داشتیم": 6308,
      "ابزاری": 6309,
      "میخواهم": 6310,
      "نفع": 6311,
      "امیدوارم": 6312,
      "عز": 6313,
      "ازن": 6314,
      "عمدتاً": 6315,
      "فعلا": 6316,
      "نصی": 6317,
      "استانداردهای": 6318,
      "استخر": 6319,
      "میدارد": 6320,
      "دانشجویی": 6321,
      "شوم": 6322,
      "گلهای": 6323,
      "ناحی": 6324,
      "کارکرد": 6325,
      "دوش": 6326,
      "قضاوت": 6327,
      "نقشهای": 6328,
      "بیاورد": 6329,
      "تنفس": 6330,
      "الوگ": 6331,
      "چالشهای": 6332,
      "الکساندر": 6333,
      "بایستی": 6334,
      "استور": 6335,
      "۱۹۴۳": 6336,
      "انوردی": 6337,
      "خیل": 6338,
      "تره": 6339,
      "تفریحی": 6340,
      "گریه": 6341,
      "علیرغم": 6342,
      "۱۹۶۷": 6343,
      "بشود": 6344,
      "سرش": 6345,
      "شدهی": 6346,
      "بکشد": 6347,
      "۸۸": 6348,
      "غافل": 6349,
      "پیشینه": 6350,
      "استارت": 6351,
      "جرج": 6352,
      "بیله": 6353,
      "الین": 6354,
      "برترین": 6355,
      "اشخاص": 6356,
      "کاوی": 6357,
      "ماجرای": 6358,
      "خاکستری": 6359,
      "داریوش": 6360,
      "شلیک": 6361,
      "ایستگاههای": 6362,
      "ماتری": 6363,
      "ناراحت": 6364,
      "لبه": 6365,
      "شریک": 6366,
      "شبکهی": 6367,
      "گندم": 6368,
      "مسیحیت": 6369,
      "پاشی": 6370,
      "میکش": 6371,
      "لیون": 6372,
      "دلیلی": 6373,
      "سرما": 6374,
      "۱۹۵۶": 6375,
      "درآم": 6376,
      "اسرایی": 6377,
      "گزارشهای": 6378,
      "مهندسان": 6379,
      "کارتهای": 6380,
      "جامد": 6381,
      "بناهای": 6382,
      "ائ": 6383,
      "پهلو": 6384,
      "موافقت": 6385,
      "روزگار": 6386,
      "یوسف": 6387,
      "تلخ": 6388,
      "گویا": 6389,
      "شجاع": 6390,
      "ضرر": 6391,
      "چشمگیری": 6392,
      "نوش": 6393,
      "سریالهای": 6394,
      "پرچمدار": 6395,
      "شیکاگو": 6396,
      "ندهید": 6397,
      "آلن": 6398,
      "سازمانها": 6399,
      "قهوهای": 6400,
      "مسیحیان": 6401,
      "انتها": 6402,
      "مصطفی": 6403,
      "باخ": 6404,
      "کوانتومی": 6405,
      "مراقب": 6406,
      "اندو": 6407,
      "باکو": 6408,
      "هاو": 6409,
      "هک": 6410,
      "پیچیدگی": 6411,
      "رسو": 6412,
      "گورستان": 6413,
      "چشمانداز": 6414,
      "فاطمه": 6415,
      "فروشنده": 6416,
      "اعصاب": 6417,
      "بغداد": 6418,
      "نفتی": 6419,
      "بیتکوین": 6420,
      "رگ": 6421,
      "سامان": 6422,
      "بهرام": 6423,
      "ایستاده": 6424,
      "ارکستر": 6425,
      "جوم": 6426,
      "پنجمین": 6427,
      "کبد": 6428,
      "هیچگاه": 6429,
      "۹۷": 6430,
      "همهٔ": 6431,
      "بالقوه": 6432,
      "فسی": 6433,
      "تعطیل": 6434,
      "مرزهای": 6435,
      "۵۰۰": 6436,
      "پاید": 6437,
      "بلک": 6438,
      "پیست": 6439,
      "سازند": 6440,
      "حوزهی": 6441,
      "چیه": 6442,
      "احساسی": 6443,
      "اردن": 6444,
      "باهم": 6445,
      "درخشان": 6446,
      "ثری": 6447,
      "تمرینات": 6448,
      "۱۹۴۲": 6449,
      "اریان": 6450,
      "وجو": 6451,
      "مفصل": 6452,
      "درب": 6453,
      "اینچ": 6454,
      "محتوی": 6455,
      "پژوهشهای": 6456,
      "ابانی": 6457,
      "لندی": 6458,
      "نشون": 6459,
      "ترد": 6460,
      "ماهیر": 6461,
      "کشتار": 6462,
      "داروی": 6463,
      "سایتها": 6464,
      "اندک": 6465,
      "منحصربه": 6466,
      "قوا": 6467,
      "اصلاحات": 6468,
      "معروفترین": 6469,
      "چارچوب": 6470,
      "حریم": 6471,
      "نایب": 6472,
      "بابل": 6473,
      "جماهیر": 6474,
      "فاکس": 6475,
      "نقض": 6476,
      "تعجب": 6477,
      "فردوسی": 6478,
      "بینداز": 6479,
      "لرزه": 6480,
      "سکوپ": 6481,
      "میلیمتر": 6482,
      "پلتفرمهای": 6483,
      "شات": 6484,
      "سوراخ": 6485,
      "مباحث": 6486,
      "حضوری": 6487,
      "رقابتی": 6488,
      "هواگردهای": 6489,
      "موان": 6490,
      "بازیابی": 6491,
      "۱۹۶۶": 6492,
      "۱۹۴۱": 6493,
      "رحی": 6494,
      "قرض": 6495,
      "انفجار": 6496,
      "لطفا": 6497,
      "روشها": 6498,
      "نقاشان": 6499,
      "سارا": 6500,
      "اریم": 6501,
      "شورا": 6502,
      "غیب": 6503,
      "قارچ": 6504,
      "فرهنگستان": 6505,
      "تخلی": 6506,
      "محتوایی": 6507,
      "عروسی": 6508,
      "زلزله": 6509,
      "دختری": 6510,
      "کنندههای": 6511,
      "ابدا": 6512,
      "میزبانی": 6513,
      "نگری": 6514,
      "فیلمشناسی": 6515,
      "قایقرانان": 6516,
      "نمایان": 6517,
      "رویدادها": 6518,
      "فسکی": 6519,
      "شرکتکنندگان": 6520,
      "دامی": 6521,
      "نمایشنامه": 6522,
      "نقلیه": 6523,
      "فاج": 6524,
      "هرکدام": 6525,
      "سادهتر": 6526,
      "اعضا": 6527,
      "صفحهی": 6528,
      "نحوی": 6529,
      "تگ": 6530,
      "علاقهمندان": 6531,
      "۶۶": 6532,
      "حکام": 6533,
      "احتیاج": 6534,
      "سنسور": 6535,
      "ساسانیان": 6536,
      "التی": 6537,
      "خیالی": 6538,
      "لیوان": 6539,
      "نیوزی": 6540,
      "نیشاب": 6541,
      "ماسی": 6542,
      "رسیدند": 6543,
      "بقای": 6544,
      "ساد": 6545,
      "فک": 6546,
      "دوگانه": 6547,
      "ماشی": 6548,
      "امامزاده": 6549,
      "پردازندهی": 6550,
      "نقاش": 6551,
      "گوناگونی": 6552,
      "رفتند": 6553,
      "مرو": 6554,
      "یمن": 6555,
      "بلاکچین": 6556,
      "آیو": 6557,
      "آوردند": 6558,
      "اکی": 6559,
      "اسلو": 6560,
      "ممکنه": 6561,
      "تیراندازی": 6562,
      "منع": 6563,
      "جس": 6564,
      "کلین": 6565,
      "پایداری": 6566,
      "جلال": 6567,
      "پله": 6568,
      "دایره": 6569,
      "فهمید": 6570,
      "یواساس": 6571,
      "شطر": 6572,
      "بزرگسالان": 6573,
      "اسباب": 6574,
      "خانهی": 6575,
      "قدری": 6576,
      "ثیری": 6577,
      "بینه": 6578,
      "دیان": 6579,
      "ژیمناست": 6580,
      "اونها": 6581,
      "فاری": 6582,
      "کوهی": 6583,
      "سردر": 6584,
      "مکانیکی": 6585,
      "مسدود": 6586,
      "تلر": 6587,
      "صفحهن": 6588,
      "باتوجه": 6589,
      "هزاره": 6590,
      "میا": 6591,
      "نادرست": 6592,
      "جوز": 6593,
      "ریال": 6594,
      "مخدر": 6595,
      "سمن": 6596,
      "ویتنام": 6597,
      "مجتمع": 6598,
      "دهایی": 6599,
      "نقشی": 6600,
      "۱۳۹۰": 6601,
      "بعنوان": 6602,
      "دنده": 6603,
      "یابند": 6604,
      "آند": 6605,
      "برداشته": 6606,
      "پراکنده": 6607,
      "بادام": 6608,
      "۱۹۶۵": 6609,
      "بدتر": 6610,
      "تأکید": 6611,
      "بااینحال": 6612,
      "فروخته": 6613,
      "راض": 6614,
      "پارلمان": 6615,
      "مساله": 6616,
      "فلکی": 6617,
      "آدام": 6618,
      "ارگان": 6619,
      "محصولی": 6620,
      "آدمها": 6621,
      "همیش": 6622,
      "معکوس": 6623,
      "ثبات": 6624,
      "پارس": 6625,
      "رویا": 6626,
      "تقاضای": 6627,
      "لیتر": 6628,
      "ویری": 6629,
      "علاوهبر": 6630,
      "انحصاری": 6631,
      "ایمن": 6632,
      "بیز": 6633,
      "روب": 6634,
      "مرتضی": 6635,
      "قهای": 6636,
      "میانداز": 6637,
      "برعکس": 6638,
      "واژگان": 6639,
      "نوازنده": 6640,
      "هلندی": 6641,
      "مسیرهای": 6642,
      "تیو": 6643,
      "نوسان": 6644,
      "ساختاری": 6645,
      "کیان": 6646,
      "ویو": 6647,
      "تبادل": 6648,
      "واکنشهای": 6649,
      "مشابهی": 6650,
      "برچسب": 6651,
      "کنسرت": 6652,
      "ادام": 6653,
      "مکانها": 6654,
      "ادور": 6655,
      "آماری": 6656,
      "تینگ": 6657,
      "یونسکو": 6658,
      "آفریقاییتبار": 6659,
      "بالاتری": 6660,
      "وردپرس": 6661,
      "پیروان": 6662,
      "نتیجهی": 6663,
      "آینه": 6664,
      "گفتند": 6665,
      "اود": 6666,
      "رالدین": 6667,
      "آمادگی": 6668,
      "نابودی": 6669,
      "خیز": 6670,
      "اکانت": 6671,
      "غالب": 6672,
      "فانت": 6673,
      "پنیر": 6674,
      "۱۹۶۲": 6675,
      "تکان": 6676,
      "پروانه": 6677,
      "اشیاء": 6678,
      "دیزنی": 6679,
      "گفتار": 6680,
      "تفنگ": 6681,
      "جکسون": 6682,
      "مقدماتی": 6683,
      "دورهای": 6684,
      "دریک": 6685,
      "استیکی": 6686,
      "کشتن": 6687,
      "میگه": 6688,
      "اوتهای": 6689,
      "دهانه": 6690,
      "بورد": 6691,
      "کالاهای": 6692,
      "لایت": 6693,
      "؟؟": 6694,
      "رنگها": 6695,
      "سازماندهی": 6696,
      "۱۹۵۲": 6697,
      "کشورمان": 6698,
      "کربو": 6699,
      "مینوی": 6700,
      "رسم": 6701,
      "متنی": 6702,
      "بزرگان": 6703,
      "گلستان": 6704,
      "مؤثر": 6705,
      "بدهی": 6706,
      "بخور": 6707,
      "شص": 6708,
      "هیو": 6709,
      "فرمت": 6710,
      "محیطهای": 6711,
      "بهرهبرداری": 6712,
      "سانس": 6713,
      "بروند": 6714,
      "نشری": 6715,
      "تندی": 6716,
      "مراتب": 6717,
      "افتخارات": 6718,
      "تراشه": 6719,
      "رسمیت": 6720,
      "آق": 6721,
      "برسید": 6722,
      "کوبا": 6723,
      "الکترون": 6724,
      "آیه": 6725,
      "بطور": 6726,
      "غالی": 6727,
      "کیفی": 6728,
      "رساندن": 6729,
      "مجموعهٔ": 6730,
      "هیچکس": 6731,
      "هزینهی": 6732,
      "سفرهای": 6733,
      "وسعت": 6734,
      "تنفسی": 6735,
      "کوهستان": 6736,
      "لغت": 6737,
      "کلسیم": 6738,
      "کردهای": 6739,
      "هاشمی": 6740,
      "یاش": 6741,
      "زمانیکه": 6742,
      "فیزی": 6743,
      "بدم": 6744,
      "شاهن": 6745,
      "نداشتن": 6746,
      "شیطان": 6747,
      "مشکی": 6748,
      "شکاف": 6749,
      "همیشگی": 6750,
      "نینگ": 6751,
      "واسط": 6752,
      "تردید": 6753,
      "جمی": 6754,
      "حریف": 6755,
      "ردو": 6756,
      "استادی": 6757,
      "فنجان": 6758,
      "آپدیت": 6759,
      "اداران": 6760,
      "آیت": 6761,
      "بخشهایی": 6762,
      "بنده": 6763,
      "حاکمیت": 6764,
      "ولوشن": 6765,
      "حمد": 6766,
      "آشپزخانه": 6767,
      "محمدعلی": 6768,
      "غلبه": 6769,
      "پستهای": 6770,
      "درم": 6771,
      "خریداران": 6772,
      "نگذ": 6773,
      "مدیره": 6774,
      "اشتغال": 6775,
      "جابه": 6776,
      "۷۷": 6777,
      "ایکائو": 6778,
      "بلوک": 6779,
      "الک": 6780,
      "ملاح": 6781,
      "سلولی": 6782,
      "جنا": 6783,
      "گالری": 6784,
      "آبا": 6785,
      "فتد": 6786,
      "اسلحه": 6787,
      "فیا": 6788,
      "دوام": 6789,
      "سرود": 6790,
      "دد": 6791,
      "صاحبان": 6792,
      "ژوین": 6793,
      "وسو": 6794,
      "سیسی": 6795,
      "سهی": 6796,
      "موی": 6797,
      "دهایم": 6798,
      "۱۳۸۸": 6799,
      "مغازه": 6800,
      "پاره": 6801,
      "فاض": 6802,
      "بکشید": 6803,
      "املاک": 6804,
      "بگذارند": 6805,
      "افی": 6806,
      "خوی": 6807,
      "صلیب": 6808,
      "درز": 6809,
      "دلهره": 6810,
      "۸۶": 6811,
      "۱۹۶۳": 6812,
      "رزرو": 6813,
      "داروها": 6814,
      "شمندی": 6815,
      "آلات": 6816,
      "سنجش": 6817,
      "پادشاهان": 6818,
      "خوشبختانه": 6819,
      "گرگ": 6820,
      "زیارت": 6821,
      "کنت": 6822,
      "نیوزیلند": 6823,
      "اختر": 6824,
      "واتر": 6825,
      "راهحل": 6826,
      "لرستان": 6827,
      "صبحانه": 6828,
      "صلیبی": 6829,
      "خرس": 6830,
      "اقلی": 6831,
      "لاد": 6832,
      "هکت": 6833,
      "هاروارد": 6834,
      "میتون": 6835,
      "اصلیترین": 6836,
      "آلومینی": 6837,
      "سنگهای": 6838,
      "ضریب": 6839,
      "لیزر": 6840,
      "هف": 6841,
      "سوتا": 6842,
      "گیت": 6843,
      "یوگس": 6844,
      "ادرار": 6845,
      "خونریزی": 6846,
      "ویدیوی": 6847,
      "پیدایش": 6848,
      "فراری": 6849,
      "بیننده": 6850,
      "خانمها": 6851,
      "خاری": 6852,
      "تصمیمات": 6853,
      "فلفل": 6854,
      "هفتاد": 6855,
      "رسول": 6856,
      "انبوه": 6857,
      "دستهای": 6858,
      "موافق": 6859,
      "محدودی": 6860,
      "اسمیت": 6861,
      "۴۲": 6862,
      "مجزا": 6863,
      "کروم": 6864,
      "رئال": 6865,
      "شطرنج": 6866,
      "سرم": 6867,
      "حامل": 6868,
      "یان": 6869,
      "کیسه": 6870,
      "تقلید": 6871,
      "میپردازیم": 6872,
      "خانوادههای": 6873,
      "منتهی": 6874,
      "لسون": 6875,
      "تحقق": 6876,
      "حسابی": 6877,
      "اتم": 6878,
      "خاطره": 6879,
      "برابری": 6880,
      "وسطی": 6881,
      "کامنت": 6882,
      "جایگزینی": 6883,
      "راقی": 6884,
      "نون": 6885,
      "شانه": 6886,
      "استودیوی": 6887,
      "دفن": 6888,
      "جنایت": 6889,
      "همکار": 6890,
      "قطبی": 6891,
      "طوریکه": 6892,
      "۱۹۵۸": 6893,
      "نحوهی": 6894,
      "اردبیل": 6895,
      "کُ": 6896,
      "هواداران": 6897,
      "آورید": 6898,
      "بازه": 6899,
      "بروزرسانی": 6900,
      "تجویز": 6901,
      "خوشمزه": 6902,
      "فعل": 6903,
      "دهاند": 6904,
      "حرارتی": 6905,
      "لزو": 6906,
      "آمدند": 6907,
      "تبلت": 6908,
      "فارغالتحصیل": 6909,
      "آنگاه": 6910,
      "جنگلهای": 6911,
      "چرخش": 6912,
      "محدودیتهای": 6913,
      "راند": 6914,
      "برایم": 6915,
      "پرداختند": 6916,
      "ویدئو": 6917,
      "هج": 6918,
      "شلوغ": 6919,
      "بیماریها": 6920,
      "فساد": 6921,
      "تث": 6922,
      "باردار": 6923,
      "فضاپی": 6924,
      "لهستانی": 6925,
      "دخالت": 6926,
      "بوشهر": 6927,
      "حالتی": 6928,
      "دههٔ": 6929,
      "رسیدهاست": 6930,
      "ارگ": 6931,
      "افسران": 6932,
      "ازجمله": 6933,
      "خیم": 6934,
      "لاو": 6935,
      "شاهنامه": 6936,
      "خلاص": 6937,
      "تبعید": 6938,
      "فواید": 6939,
      "زایمان": 6940,
      "تلفنی": 6941,
      "عبارتی": 6942,
      "شاف": 6943,
      "دایمی": 6944,
      "روشنایی": 6945,
      "هالیوود": 6946,
      "تعقیب": 6947,
      "تولیدکننده": 6948,
      "تخلیه": 6949,
      "سکا": 6950,
      "خواهرخوانده": 6951,
      "توم": 6952,
      "مارول": 6953,
      "مهاجرتکرده": 6954,
      "تله": 6955,
      "لاز": 6956,
      "ورزشهای": 6957,
      "اسیر": 6958,
      "اعتی": 6959,
      "فاکتور": 6960,
      "??": 6961,
      "زیان": 6962,
      "هواگرد": 6963,
      "خلیفه": 6964,
      "جایزهٔ": 6965,
      "برسند": 6966,
      "افقی": 6967,
      "دائ": 6968,
      "نظرم": 6969,
      "کانت": 6970,
      "متنوعی": 6971,
      "جوایزی": 6972,
      "فریاد": 6973,
      "تیوری": 6974,
      "رماننویسان": 6975,
      "شفا": 6976,
      "عکسها": 6977,
      "عمارت": 6978,
      "پارا": 6979,
      "پخته": 6980,
      "آهنگسازی": 6981,
      "۱۹۳۶": 6982,
      "ذخیرهسازی": 6983,
      "گشته": 6984,
      "سرزمینهای": 6985,
      "گست": 6986,
      "فرصتهای": 6987,
      "وندا": 6988,
      "بچههای": 6989,
      "خشن": 6990,
      "مایه": 6991,
      "برانگی": 6992,
      "تطبی": 6993,
      "ساختمانی": 6994,
      "نامید": 6995,
      "امکانپذیر": 6996,
      "لانی": 6997,
      "مصرفی": 6998,
      "مزار": 6999,
      "میپردازند": 7000,
      "اتیو": 7001,
      "فرصتی": 7002,
      "اصطلاحات": 7003,
      "ترسیم": 7004,
      "عموما": 7005,
      "منحلشده": 7006,
      "شکی": 7007,
      "گیمر": 7008,
      "بدا": 7009,
      "ریخت": 7010,
      "دوز": 7011,
      "میتی": 7012,
      "۷۶": 7013,
      "بازیگرانی": 7014,
      "شعبه": 7015,
      "حبس": 7016,
      "توسعهدهندگان": 7017,
      "خاکس": 7018,
      "زندانیان": 7019,
      "بتوانیم": 7020,
      "بههمراه": 7021,
      "چم": 7022,
      "خیانت": 7023,
      "نخستوزیر": 7024,
      "جلوه": 7025,
      "شصت": 7026,
      "نکتهی": 7027,
      "تواناییهای": 7028,
      "سرتاسر": 7029,
      "متحرک": 7030,
      "بیسیم": 7031,
      "مولی": 7032,
      "سازگاری": 7033,
      "شاگردان": 7034,
      "قصر": 7035,
      "نمودند": 7036,
      "بیامو": 7037,
      "۴۱": 7038,
      "تاجیکستان": 7039,
      "یوگسلاوی": 7040,
      "الز": 7041,
      "ژنو": 7042,
      "دیت": 7043,
      "زنجیره": 7044,
      "فروشترین": 7045,
      "میخوام": 7046,
      "استوری": 7047,
      "سپرد": 7048,
      "فانتزی": 7049,
      "عاملی": 7050,
      "کشتیگیران": 7051,
      "راستا": 7052,
      "اسکو": 7053,
      "سراسری": 7054,
      "طلبان": 7055,
      "آزمایشهای": 7056,
      "۱۹۳۹": 7057,
      "تفکیک": 7058,
      "پرسن": 7059,
      "آثاری": 7060,
      "لبی": 7061,
      "تناسب": 7062,
      "طاق": 7063,
      "اسو": 7064,
      "بشن": 7065,
      "گزارشی": 7066,
      "۴۳": 7067,
      "اسراییل": 7068,
      "قیام": 7069,
      "چرز": 7070,
      "قید": 7071,
      "نباشید": 7072,
      "سایز": 7073,
      "صول": 7074,
      "تاک": 7075,
      "گارد": 7076,
      "زاب": 7077,
      "افزودن": 7078,
      "بایرن": 7079,
      "باع": 7080,
      "خوانند": 7081,
      "شکلگیری": 7082,
      "حلال": 7083,
      "منصور": 7084,
      "چهرههای": 7085,
      "تکراری": 7086,
      "اپور": 7087,
      "اسمی": 7088,
      "فقر": 7089,
      "سختافزار": 7090,
      "مدیترانه": 7091,
      "فضاهای": 7092,
      "تفاوتهای": 7093,
      "افزارهای": 7094,
      "عب": 7095,
      "کمکی": 7096,
      "مرحلهی": 7097,
      "مقاوم": 7098,
      "فرعی": 7099,
      "مونو": 7100,
      "توریا": 7101,
      "زیتون": 7102,
      "کتان": 7103,
      "لیبرا": 7104,
      "غریب": 7105,
      "صفحهنمایش": 7106,
      "کووید": 7107,
      "دموکراسی": 7108,
      "انور": 7109,
      "برین": 7110,
      "نمره": 7111,
      "کادر": 7112,
      "دموکراتیک": 7113,
      "درنهایت": 7114,
      "افزاری": 7115,
      "کویت": 7116,
      "کبیر": 7117,
      "لیس": 7118,
      "حرم": 7119,
      "قالی": 7120,
      "پسران": 7121,
      "خدماتی": 7122,
      "کهکشان": 7123,
      "مشروطه": 7124,
      "نخواهند": 7125,
      "کرج": 7126,
      "شیعیان": 7127,
      "نصر": 7128,
      "برگهای": 7129,
      "بلد": 7130,
      "دادیم": 7131,
      "موسسات": 7132,
      "مادری": 7133,
      "سرمربی": 7134,
      "بهرهم": 7135,
      "تاکی": 7136,
      "اهواز": 7137,
      "رزولوشن": 7138,
      "آیتم": 7139,
      "جرد": 7140,
      "خانی": 7141,
      "حسب": 7142,
      "حکمر": 7143,
      "تصاویری": 7144,
      "موها": 7145,
      "دستاور": 7146,
      "جول": 7147,
      "ریل": 7148,
      "رودهای": 7149,
      "اماس": 7150,
      "عقاید": 7151,
      "بپرسید": 7152,
      "اطلس": 7153,
      "بخواهد": 7154,
      "ماهه": 7155,
      "پرطرفدار": 7156,
      "ویکیسازی": 7157,
      "اعتیاد": 7158,
      "کارنامه": 7159,
      "بازخورد": 7160,
      "ببیند": 7161,
      "ماین": 7162,
      "افسانه": 7163,
      "پویا": 7164,
      "فرانسیسکو": 7165,
      "دع": 7166,
      "مخزن": 7167,
      "مختصات": 7168,
      "پز": 7169,
      "دوستانه": 7170,
      "غیرقانونی": 7171,
      "فلیکس": 7172,
      "۳۰۰": 7173,
      "۱۹۶۱": 7174,
      "نازک": 7175,
      "مسئولیت": 7176,
      "کوهن": 7177,
      "سردار": 7178,
      "بیاورید": 7179,
      "بهراحتی": 7180,
      "فیلیپین": 7181,
      "۱۳۵۷": 7182,
      "کاشی": 7183,
      "استیون": 7184,
      "مشه": 7185,
      "حوالی": 7186,
      "کیش": 7187,
      "فرایندهای": 7188,
      "سینگ": 7189,
      "بالینی": 7190,
      "ستها": 7191,
      "زانو": 7192,
      "کوچکترین": 7193,
      "استراتژیک": 7194,
      "صحت": 7195,
      "سرپرست": 7196,
      "الگوهای": 7197,
      "بگوید": 7198,
      "ارمغان": 7199,
      "ناص": 7200,
      "اینجاست": 7201,
      "اصطلا": 7202,
      "جنگلی": 7203,
      "یافتند": 7204,
      "مثبتی": 7205,
      "دیدا": 7206,
      "شیب": 7207,
      "پوسته": 7208,
      "حمت": 7209,
      "قبیله": 7210,
      "تونس": 7211,
      "پرویز": 7212,
      "۱۹۵۹": 7213,
      "سنین": 7214,
      "کما": 7215,
      "بینالملل": 7216,
      "سایی": 7217,
      "اراده": 7218,
      "سفیر": 7219,
      "کنج": 7220,
      "خطاب": 7221,
      "رانندگان": 7222,
      "فلان": 7223,
      "۸۷": 7224,
      "اینکار": 7225,
      "مینهسوتا": 7226,
      "بخواهیم": 7227,
      "راهکار": 7228,
      "نبودن": 7229,
      "سحر": 7230,
      "بستری": 7231,
      "نداد": 7232,
      "سیکل": 7233,
      "رقب": 7234,
      "پینگ": 7235,
      "فرقه": 7236,
      "شخصیتها": 7237,
      "آدمی": 7238,
      "خیس": 7239,
      "خودروها": 7240,
      "جورجیا": 7241,
      "خواجه": 7242,
      "برایشان": 7243,
      "محبت": 7244,
      "کج": 7245,
      "کاشت": 7246,
      "جاذبه": 7247,
      "کمدین": 7248,
      "فعالیتها": 7249,
      "ورها": 7250,
      "چیان": 7251,
      "میگردند": 7252,
      "شیرازی": 7253,
      "خاکسپاری": 7254,
      "رویه": 7255,
      "قرا": 7256,
      "۵۷": 7257,
      "صحبتهای": 7258,
      "درحالی": 7259,
      "مراجع": 7260,
      "پلاستیک": 7261,
      "بلندی": 7262,
      "ردهبندی": 7263,
      "بدانیم": 7264,
      "عهای": 7265,
      "ریزش": 7266,
      "مکرر": 7267,
      "قزاقستان": 7268,
      "مزمن": 7269,
      "ویدیوهای": 7270,
      "برآورده": 7271,
      "شایعات": 7272,
      "مگاپیکسلی": 7273,
      "بزرگراه": 7274,
      "مخالفان": 7275,
      "سها": 7276,
      "سواد": 7277,
      "منچستر": 7278,
      "وحد": 7279,
      "زنجان": 7280,
      "اریک": 7281,
      "هکتار": 7282,
      "۱۹۵۴": 7283,
      "صادرات": 7284,
      "دوک": 7285,
      "ترویج": 7286,
      "طایفه": 7287,
      "نمیشه": 7288,
      "تات": 7289,
      "صله": 7290,
      "شاخههای": 7291,
      "شیک": 7292,
      "موانع": 7293,
      "رافت": 7294,
      "تعلی": 7295,
      "گفتیم": 7296,
      "قنات": 7297,
      "رادو": 7298,
      "باف": 7299,
      "موت": 7300,
      "بهخوبی": 7301,
      "پاور": 7302,
      "ماندگار": 7303,
      "مثلاً": 7304,
      "سفانه": 7305,
      "فیروز": 7306,
      "گیمپلی": 7307,
      "پرفروشترین": 7308,
      "تباری": 7309,
      "السلام": 7310,
      "توجیه": 7311,
      "کارگاه": 7312,
      "نمیدون": 7313,
      "شیوههای": 7314,
      "پیشرو": 7315,
      "دینگ": 7316,
      "میدهم": 7317,
      "دژ": 7318,
      "طانی": 7319,
      "بودی": 7320,
      "استحکام": 7321,
      "استیو": 7322,
      "الگوریتمهای": 7323,
      "سوییچ": 7324,
      "بگذ": 7325,
      "سات": 7326,
      "فضل": 7327,
      "موسوی": 7328,
      "آسانتر": 7329,
      "کاپیتان": 7330,
      "جویان": 7331,
      "خز": 7332,
      "زمانهای": 7333,
      "تلفنهای": 7334,
      "محلههای": 7335,
      "مریخ": 7336,
      "دانههای": 7337,
      "مهاجم": 7338,
      "گرمای": 7339,
      "نیتبار": 7340,
      "آسانی": 7341,
      "توییت": 7342,
      "کپ": 7343,
      "ادامهی": 7344,
      "یازده": 7345,
      "گردآوری": 7346,
      "حومه": 7347,
      "توانستند": 7348,
      "قومی": 7349,
      "۸۹": 7350,
      "لیسانس": 7351,
      "آنالیز": 7352,
      "نمیشد": 7353,
      "لاب": 7354,
      "تماشاگر": 7355,
      "خامت": 7356,
      "خانوادهاش": 7357,
      "مأموریت": 7358,
      "۵۶": 7359,
      "کمیک": 7360,
      "صداپیش": 7361,
      "داوطلب": 7362,
      "دارنده": 7363,
      "نیستم": 7364,
      "کارشناس": 7365,
      "میدو": 7366,
      "نداده": 7367,
      "رصد": 7368,
      "گشایی": 7369,
      "بیایید": 7370,
      "هستش": 7371,
      "۱۹۴۷": 7372,
      "دهمین": 7373,
      "جمشید": 7374,
      "محرک": 7375,
      "داشتنی": 7376,
      "مامان": 7377,
      "براتون": 7378,
      "نوشیدن": 7379,
      "پکیج": 7380,
      "۱۹۴۶": 7381,
      "آلاباما": 7382,
      "حواس": 7383,
      "عادل": 7384,
      "خودی": 7385,
      "تابلو": 7386,
      "اندیسهای": 7387,
      "انکار": 7388,
      "مستقیما": 7389,
      "فهای": 7390,
      "۱۳۹۸": 7391,
      "الیسم": 7392,
      "بورن": 7393,
      "کنهای": 7394,
      "نکاتی": 7395,
      "موازی": 7396,
      "افسر": 7397,
      "پوند": 7398,
      "الدوله": 7399,
      "فهی": 7400,
      "فرهاد": 7401,
      "بنفش": 7402,
      "تازهای": 7403,
      "بدید": 7404,
      "مانه": 7405,
      "درآورد": 7406,
      "میبخشد": 7407,
      "موزیکال": 7408,
      "استقرار": 7409,
      "سخنگ": 7410,
      "عارف": 7411,
      "طرفین": 7412,
      "ارث": 7413,
      "مونیخ": 7414,
      "کرسی": 7415,
      "ازبک": 7416,
      "پاب": 7417,
      "راستی": 7418,
      "سیری": 7419,
      "نبودند": 7420,
      "موجودی": 7421,
      "دربر": 7422,
      "مصالح": 7423,
      "تهیهکنندگی": 7424,
      "بانوان": 7425,
      "عنک": 7426,
      "ارزشهای": 7427,
      "ساعتی": 7428,
      "تسخ": 7429,
      "ایروان": 7430,
      "تراکم": 7431,
      "مینامند": 7432,
      "نیشابور": 7433,
      "عان": 7434,
      "منوی": 7435,
      "بهینهسازی": 7436,
      "یازدهم": 7437,
      "اعراب": 7438,
      "سیلندر": 7439,
      "۱۳۸۹": 7440,
      "قاز": 7441,
      "یافتهاست": 7442,
      "ارق": 7443,
      "مذاک": 7444,
      "میلیونها": 7445,
      "جنسیت": 7446,
      "بمانی": 7447,
      "پیکچرز": 7448,
      "تلفظ": 7449,
      "مجموعهی": 7450,
      "حول": 7451,
      "تغییری": 7452,
      "پرهیز": 7453,
      "اتلت": 7454,
      "منتخب": 7455,
      "انها": 7456,
      "بنز": 7457,
      "کارتان": 7458,
      "عمان": 7459,
      "پوزی": 7460,
      "غذاها": 7461,
      "حدیث": 7462,
      "تعبیه": 7463,
      "بروی": 7464,
      "رهایی": 7465,
      "مشهورترین": 7466,
      "درهم": 7467,
      "مشاه": 7468,
      "دارک": 7469,
      "خودآگاه": 7470,
      "شهرستانها": 7471,
      "بکش": 7472,
      "ارتقاء": 7473,
      "تراکنش": 7474,
      "اته": 7475,
      "ناسیون": 7476,
      "۱۳۹۶": 7477,
      "نوجوانی": 7478,
      "بهخصوص": 7479,
      "جعفری": 7480,
      "شبیهسازی": 7481,
      "شوق": 7482,
      "بارش": 7483,
      "دیا": 7484,
      "کبک": 7485,
      "تثبیت": 7486,
      "نیستی": 7487,
      "ضل": 7488,
      "عمودی": 7489,
      "پرش": 7490,
      "لحظهای": 7491,
      "پیرو": 7492,
      "علیا": 7493,
      "نزدیکتر": 7494,
      "هزینهها": 7495,
      "قراردادی": 7496,
      "بارسلونا": 7497,
      "دیز": 7498,
      "منظر": 7499,
      "۱۹۵۵": 7500,
      "دستگاهها": 7501,
      "ولتاژ": 7502,
      "نیروگاه": 7503,
      "پستی": 7504,
      "برام": 7505,
      "لاق": 7506,
      "ممنو": 7507,
      "پیری": 7508,
      "ویزا": 7509,
      "مبارک": 7510,
      "باهاش": 7511,
      "آدمهای": 7512,
      "صامت": 7513,
      "مضر": 7514,
      "خطای": 7515,
      "آرمان": 7516,
      "پمپ": 7517,
      "یمی": 7518,
      "ثان": 7519,
      "تشدید": 7520,
      "جملات": 7521,
      "پتی": 7522,
      "هیچوقت": 7523,
      "ارب": 7524,
      "آنهایی": 7525,
      "۱۳۹۲": 7526,
      "ناظر": 7527,
      "زیباترین": 7528,
      "گردو": 7529,
      "فیلسوف": 7530,
      "اکم": 7531,
      "فلور": 7532,
      "ایمی": 7533,
      "ربا": 7534,
      "اعطا": 7535,
      "مقص": 7536,
      "خودمون": 7537,
      "تسخیر": 7538,
      "۱۹۵۷": 7539,
      "خودشون": 7540,
      "ازل": 7541,
      "علل": 7542,
      "دستش": 7543,
      "زنا": 7544,
      "گوجه": 7545,
      "ششمین": 7546,
      "زرتشتی": 7547,
      "پوشان": 7548,
      "مهمانی": 7549,
      "هواپیماهای": 7550,
      "آکس": 7551,
      "مزر": 7552,
      "ساو": 7553,
      "ادیان": 7554,
      "ناشناخته": 7555,
      "اجتماع": 7556,
      "زخمی": 7557,
      "دلایلی": 7558,
      "تسهیل": 7559,
      "اسطوره": 7560,
      "کناره": 7561,
      "دهندهی": 7562,
      "سوسیالیستی": 7563,
      "همایش": 7564,
      "لحظات": 7565,
      "مطمینا": 7566,
      "وحدت": 7567,
      "دلهرهآور": 7568,
      "معا": 7569,
      "معتر": 7570,
      "نخواهید": 7571,
      "ونهای": 7572,
      "هیتلر": 7573,
      "اندازهای": 7574,
      "ارومیه": 7575,
      "آیووا": 7576,
      "فشان": 7577,
      "لیز": 7578,
      "لاط": 7579,
      "بپردازید": 7580,
      "تابش": 7581,
      "رستم": 7582,
      "تراز": 7583,
      "۱۹۵۳": 7584,
      "درهای": 7585,
      "میشده": 7586,
      "ونم": 7587,
      "ویران": 7588,
      "بدترین": 7589,
      "حاکی": 7590,
      "نکردن": 7591,
      "معاونت": 7592,
      "نشانی": 7593,
      "ایسل": 7594,
      "شوخی": 7595,
      "دیوانه": 7596,
      "کنسولهای": 7597,
      "محلات": 7598,
      "گلوله": 7599,
      "ظروف": 7600,
      "دوچرخهسواری": 7601,
      "ذیل": 7602,
      "بروم": 7603,
      "سانتیگراد": 7604,
      "کانتی": 7605,
      "تیمور": 7606,
      "عال": 7607,
      "وسفید": 7608,
      "اعتباری": 7609,
      "دردسر": 7610,
      "تناس": 7611,
      "رزو": 7612,
      "لوئیس": 7613,
      "باقر": 7614,
      "چت": 7615,
      "تجربهای": 7616,
      "مزرعه": 7617,
      "شیشهای": 7618,
      "دکتری": 7619,
      "ونها": 7620,
      "دشواری": 7621,
      "زحمت": 7622,
      "اپیزود": 7623,
      "۱۳۸۷": 7624,
      "رمضان": 7625,
      "دکورا": 7626,
      "سامانههای": 7627,
      "ایراد": 7628,
      "اصرار": 7629,
      "کوبی": 7630,
      "۱۹۴۹": 7631,
      "تبعی": 7632,
      "غلات": 7633,
      "ازطریق": 7634,
      "خلاقانه": 7635,
      "دستگیری": 7636,
      "بهتازگی": 7637,
      "سخنان": 7638,
      "دند": 7639,
      "فالت": 7640,
      "مادرم": 7641,
      "پایینی": 7642,
      "پیشروی": 7643,
      "پلاستیکی": 7644,
      "بلوغ": 7645,
      "۵۸": 7646,
      "داگ": 7647,
      "حاقی": 7648,
      "پدرم": 7649,
      "میتونیم": 7650,
      "پیامهای": 7651,
      "بوسی": 7652,
      "چشمگیر": 7653,
      "لیان": 7654,
      "اسات": 7655,
      "کلر": 7656,
      "منم": 7657,
      "ضرو": 7658,
      "لیور": 7659,
      "زنانه": 7660,
      "هیجانی": 7661,
      "دانستن": 7662,
      "براون": 7663,
      "آتل": 7664,
      "ستایش": 7665,
      "داین": 7666,
      "مریلند": 7667,
      "کرون": 7668,
      "لیگای": 7669,
      "آرم": 7670,
      "تفریح": 7671,
      "دقیقی": 7672,
      "آنتو": 7673,
      "وسیلهٔ": 7674,
      "ماهواره": 7675,
      "خودروسازی": 7676,
      "حکومتی": 7677,
      "نمونهای": 7678,
      "ترغیب": 7679,
      "خاکی": 7680,
      "بنگلاد": 7681,
      "سیاهوسفید": 7682,
      "روانه": 7683,
      "نگهبان": 7684,
      "شهاد": 7685,
      "سبورگ": 7686,
      "درآمده": 7687,
      "خوشایند": 7688,
      "ایندیانا": 7689,
      "نقاشیهای": 7690,
      "هیدروژن": 7691,
      "ارتقای": 7692,
      "رسانده": 7693,
      "البرز": 7694,
      "حیدر": 7695,
      "ختند": 7696,
      "بپردازند": 7697,
      "جایز": 7698,
      "زبانها": 7699,
      "پروفایل": 7700,
      "نیستید": 7701,
      "میکردیم": 7702,
      "سلجو": 7703,
      "کدوم": 7704,
      "اعزام": 7705,
      "خلبان": 7706,
      "ارزشی": 7707,
      "۱۹۱۸": 7708,
      "دومی": 7709,
      "اپراتور": 7710,
      "شکنجه": 7711,
      "ادب": 7712,
      "دورهی": 7713,
      "فرماندهان": 7714,
      "محاکم": 7715,
      "درنظر": 7716,
      "تورهای": 7717,
      "بوندسلیگای": 7718,
      "۱۳۹۷": 7719,
      "رفاه": 7720,
      "لوگو": 7721,
      "فیلمنامهنویس": 7722,
      "محصولاتی": 7723,
      "دارندگان": 7724,
      "انجامید": 7725,
      "دیرین": 7726,
      "اقتباسشده": 7727,
      "یونیور": 7728,
      "آیک": 7729,
      "استناد": 7730,
      "آلبانی": 7731,
      "خطرات": 7732,
      "دیوارهای": 7733,
      "اسامی": 7734,
      "گفتو": 7735,
      "دقیقتر": 7736,
      "اموال": 7737,
      "شیایو": 7738,
      "نسبتاً": 7739,
      "نامن": 7740,
      "شناسه": 7741,
      "بسازید": 7742,
      "زومجی": 7743,
      "پتو": 7744,
      "موقعیتهای": 7745,
      "شاپور": 7746,
      "معیارهای": 7747,
      "ماشینهای": 7748,
      "پرسنل": 7749,
      "مهیج": 7750,
      "ابداع": 7751,
      "لایههای": 7752,
      "حشرات": 7753,
      "مقالهای": 7754,
      "ئوس": 7755,
      "۹۲": 7756,
      "ابولی": 7757,
      "مردانه": 7758,
      "امضای": 7759,
      "تصادف": 7760,
      "حوض": 7761,
      "سوانح": 7762,
      "زرین": 7763,
      "خنثی": 7764,
      "ارههای": 7765,
      "آمیزی": 7766,
      "ماهانه": 7767,
      "پولو": 7768,
      "تمای": 7769,
      "کنندهای": 7770,
      "بیفتد": 7771,
      "آکو": 7772,
      "معارف": 7773,
      "ولف": 7774,
      "پیشرفتهای": 7775,
      "عرق": 7776,
      "ندرت": 7777,
      "جوا": 7778,
      "یور": 7779,
      "رداد": 7780,
      "محروم": 7781,
      "انسانهای": 7782,
      "خسارت": 7783,
      "۱۹۲۸": 7784,
      "سوزان": 7785,
      "گستری": 7786,
      "قایل": 7787,
      "مواجهه": 7788,
      "سیستمی": 7789,
      "تفت": 7790,
      "۱۹۱۹": 7791,
      "اتخا": 7792,
      "بپردازد": 7793,
      "گلدن": 7794,
      "آلیا": 7795,
      "وضعی": 7796,
      "آنتن": 7797,
      "آرتور": 7798,
      "هین": 7799,
      "رمزار": 7800,
      "عده": 7801,
      "توت": 7802,
      "نامزدی": 7803,
      "تصویربرداری": 7804,
      "همت": 7805,
      "نوا": 7806,
      "اتخاذ": 7807,
      "کمبریج": 7808,
      "مساوی": 7809,
      "مورخ": 7810,
      "اکسیدان": 7811,
      "فیلیپ": 7812,
      "شگفتانگیز": 7813,
      "جابجایی": 7814,
      "روحیه": 7815,
      "انیمه": 7816,
      "راهکارهای": 7817,
      "بارگذاری": 7818,
      "اذیت": 7819,
      "فراگیر": 7820,
      "۱۹۳۸": 7821,
      "جانور": 7822,
      "نکنند": 7823,
      "جنی": 7824,
      "احزاب": 7825,
      "سوئی": 7826,
      "بشناسی": 7827,
      "۱۴۰۰": 7828,
      "حکایت": 7829,
      "اطرافی": 7830,
      "آستانه": 7831,
      "شکاری": 7832,
      "روزنامهنگاران": 7833,
      "واقعه": 7834,
      "زیرزمینی": 7835,
      "بازدیدکنندگان": 7836,
      "جاهای": 7837,
      "هندوستان": 7838,
      "بچ": 7839,
      "مهربان": 7840,
      "الحاقی": 7841,
      "۱۹۳۲": 7842,
      "باق": 7843,
      "قربانیان": 7844,
      "شاری": 7845,
      "سیال": 7846,
      "داوران": 7847,
      "عجیبی": 7848,
      "هیچگونه": 7849,
      "مناق": 7850,
      "ایون": 7851,
      "دب": 7852,
      "اشتباهات": 7853,
      "نیج": 7854,
      "کاپ": 7855,
      "دوشنبه": 7856,
      "اعم": 7857,
      "افزونه": 7858,
      "گوسف": 7859,
      "دکوراسیون": 7860,
      "هشتاد": 7861,
      "قبلاً": 7862,
      "چید": 7863,
      "نص": 7864,
      "امیدی": 7865,
      "آیندهی": 7866,
      "رساله": 7867,
      "بریتی": 7868,
      "۱۹۵۱": 7869,
      "ایای": 7870,
      "دههای": 7871,
      "چهارشنبه": 7872,
      "کلست": 7873,
      "بیاور": 7874,
      "خیابانی": 7875,
      "سوند": 7876,
      "۱۹۲۴": 7877,
      "معادله": 7878,
      "مدیریتی": 7879,
      "دروس": 7880,
      "سندرم": 7881,
      "۱۳۹۴": 7882,
      "شکلات": 7883,
      "شدیدی": 7884,
      "منحصربهفرد": 7885,
      "شیایومی": 7886,
      "ذات": 7887,
      "فسور": 7888,
      "لامپ": 7889,
      "گفتی": 7890,
      "تاش": 7891,
      "فقیه": 7892,
      "بابک": 7893,
      "وحش": 7894,
      "بیابان": 7895,
      "پژوهشگر": 7896,
      "لری": 7897,
      "کشورهایی": 7898,
      "سرمایهگذاران": 7899,
      "گاس": 7900,
      "باشگاهی": 7901,
      "فرادی": 7902,
      "تایمز": 7903,
      "تورنتو": 7904,
      "درنتیجه": 7905,
      "مادا": 7906,
      "خیلیها": 7907,
      "۱۳۸۴": 7908,
      "میتوانم": 7909,
      "دکترای": 7910,
      "تقدیر": 7911,
      "ردیابی": 7912,
      "طوفان": 7913,
      "اساتید": 7914,
      "انده": 7915,
      "۶۷": 7916,
      "کامپای": 7917,
      "گینه": 7918,
      "لزوم": 7919,
      "مهران": 7920,
      "کردهام": 7921,
      "کاف": 7922,
      "رویی": 7923,
      "نشینی": 7924,
      "بشی": 7925,
      "کانالهای": 7926,
      "آداب": 7927,
      "فصلی": 7928,
      "بازنشست": 7929,
      "عراقی": 7930,
      "مسلم": 7931,
      "شونده": 7932,
      "تظاه": 7933,
      "بوتی": 7934,
      "تاثیرگذار": 7935,
      "پارتی": 7936,
      "ساوت": 7937,
      "ببینند": 7938,
      "پیراه": 7939,
      "اشتیا": 7940,
      "نامناسب": 7941,
      "بسا": 7942,
      "قبرس": 7943,
      "میخ": 7944,
      "ترانهپردازان": 7945,
      "کوال": 7946,
      "تسا": 7947,
      "پتون": 7948,
      "چا": 7949,
      "بنگلادش": 7950,
      "برسان": 7951,
      "وایت": 7952,
      "هندبال": 7953,
      "چاقی": 7954,
      "قیف": 7955,
      "منتشرشده": 7956,
      "بررسیهای": 7957,
      "ساختارهای": 7958,
      "اَ": 7959,
      "نیوز": 7960,
      "پیوستن": 7961,
      "ستن": 7962,
      "گرهای": 7963,
      "مذاکرات": 7964,
      "تخته": 7965,
      "شدهای": 7966,
      "هیدرات": 7967,
      "متوالی": 7968,
      "بازتاب": 7969,
      "نمیتوانست": 7970,
      "فرماندار": 7971,
      "بینا": 7972,
      "ضم": 7973,
      "زال": 7974,
      "قاتل": 7975,
      "تنسی": 7976,
      "اعتراف": 7977,
      "۱۳۹۳": 7978,
      "مهاجران": 7979,
      "اماکن": 7980,
      "سترن": 7981,
      "نشدهاست": 7982,
      "خریدار": 7983,
      "ِی": 7984,
      "پیادهروی": 7985,
      "هلی": 7986,
      "گزینهی": 7987,
      "مبدل": 7988,
      "خداحافظ": 7989,
      "سازه": 7990,
      "فریب": 7991,
      "محافظه": 7992,
      "سلجوقی": 7993,
      "اسکیت": 7994,
      "سفت": 7995,
      "عامه": 7996,
      "محرم": 7997,
      "حفر": 7998,
      "مداد": 7999,
      "تشکر": 8000,
      "هکر": 8001,
      "ارجاع": 8002,
      "تمایز": 8003,
      "متقابل": 8004,
      "جاز": 8005,
      "۱۵۰": 8006,
      "روژن": 8007,
      "سرچشمه": 8008,
      "نقدی": 8009,
      "برمیگردد": 8010,
      "اصغر": 8011,
      "جیم": 8012,
      "سهبعدی": 8013,
      "اینا": 8014,
      "چادر": 8015,
      "نجف": 8016,
      "ورزشگاههای": 8017,
      "اسرار": 8018,
      "زینهای": 8019,
      "سنگاپور": 8020,
      "فز": 8021,
      "بستن": 8022,
      "کیس": 8023,
      "فروند": 8024,
      "صلاحیت": 8025,
      "دبلی": 8026,
      "همدیگر": 8027,
      "ولوژیکی": 8028,
      "ویکتوریا": 8029,
      "بیک": 8030,
      "دانشآموزان": 8031,
      "زنجیرهای": 8032,
      "شلوار": 8033,
      "گرفتار": 8034,
      "خوشی": 8035,
      "گاران": 8036,
      "زدم": 8037,
      "بنزین": 8038,
      "استریم": 8039,
      "انتخاباتی": 8040,
      "کلسترول": 8041,
      "منتظ": 8042,
      "عضلانی": 8043,
      "حبی": 8044,
      "گوری": 8045,
      "آکسفورد": 8046,
      "افتخاری": 8047,
      "سرچ": 8048,
      "پوشاک": 8049,
      "فاجعه": 8050,
      "بانکها": 8051,
      "مارکت": 8052,
      "روزنامهنگار": 8053,
      "آریز": 8054,
      "ابزارها": 8055,
      "تئوری": 8056,
      "بارز": 8057,
      "سفارشی": 8058,
      "ذره": 8059,
      "بهرهوری": 8060,
      "پوشید": 8061,
      "پرتغالی": 8062,
      "مهمانان": 8063,
      "شدهاید": 8064,
      "هاب": 8065,
      "پیشفرض": 8066,
      "بگیرم": 8067,
      "قفقاز": 8068,
      "سدهٔ": 8069,
      "طباط": 8070,
      "گاسکار": 8071,
      "بخصوص": 8072,
      "آسفالت": 8073,
      "سختتر": 8074,
      "بازرگان": 8075,
      "فیق": 8076,
      "تموم": 8077,
      "سرپرستی": 8078,
      "اسکل": 8079,
      "جنج": 8080,
      "هفتمین": 8081,
      "ماداگاسکار": 8082,
      "زع": 8083,
      "شاهنشاهی": 8084,
      "سوابق": 8085,
      "اروپای": 8086,
      "ببند": 8087,
      "ادت": 8088,
      "۲۰۲۳": 8089,
      "خیابانهای": 8090,
      "صحنههای": 8091,
      "کهنه": 8092,
      "آپارتمان": 8093,
      "ضخامت": 8094,
      "هه": 8095,
      "ایلام": 8096,
      "کلیف": 8097,
      "هریک": 8098,
      "اراضی": 8099,
      "نشستن": 8100,
      "بکر": 8101,
      "واردات": 8102,
      "اساط": 8103,
      "بخت": 8104,
      "ماشینی": 8105,
      "آسیبهای": 8106,
      "پانزده": 8107,
      "بیاد": 8108,
      "ظریف": 8109,
      "نداشتم": 8110,
      "سلطه": 8111,
      "رؤ": 8112,
      "رفتیم": 8113,
      "بیانیه": 8114,
      "عقد": 8115,
      "رزومه": 8116,
      "هرز": 8117,
      "سلطنه": 8118,
      "یادشده": 8119,
      "شاهان": 8120,
      "اپرا": 8121,
      "نمایشنام": 8122,
      "نفری": 8123,
      "کنسر": 8124,
      "۱۴۰۱": 8125,
      "مولکولی": 8126,
      "یکشنبه": 8127,
      "مشتاق": 8128,
      "روال": 8129,
      "سادهای": 8130,
      "ماهیچه": 8131,
      "قواعد": 8132,
      "نوو": 8133,
      "آرس": 8134,
      "ویسکان": 8135,
      "ازبکستان": 8136,
      "کله": 8137,
      "تاخیر": 8138,
      "دینا": 8139,
      "میشناسند": 8140,
      "ویرگول": 8141,
      "معایب": 8142,
      "بیبیسی": 8143,
      "واش": 8144,
      "نقر": 8145,
      "جناح": 8146,
      "تاس": 8147,
      "بانکهای": 8148,
      "آموزشهای": 8149,
      "بزنند": 8150,
      "دونالد": 8151,
      "ضرورت": 8152,
      "سفری": 8153,
      "اشراف": 8154,
      "فلش": 8155,
      "پتا": 8156,
      "شکستگی": 8157,
      "چان": 8158,
      "پاکسازی": 8159,
      "ربی": 8160,
      "جریمه": 8161,
      "خزر": 8162,
      "تسلا": 8163,
      "مسافرت": 8164,
      "لیبی": 8165,
      "شایست": 8166,
      "قویتر": 8167,
      "بینظیر": 8168,
      "سلیقه": 8169,
      "بدیم": 8170,
      "اتوماتیک": 8171,
      "راین": 8172,
      "پاتری": 8173,
      "آهنگهای": 8174,
      "واسه": 8175,
      "عظیمی": 8176,
      "هدر": 8177,
      "یادم": 8178,
      "زاه": 8179,
      "۶۴": 8180,
      "نهتنها": 8181,
      "گروهها": 8182,
      "ارتفاعات": 8183,
      "فرضی": 8184,
      "تانا": 8185,
      "لاغری": 8186,
      "شهادت": 8187,
      "ابک": 8188,
      "نشانهای": 8189,
      "اندرویدی": 8190,
      "پیشگام": 8191,
      "فلزات": 8192,
      "آجر": 8193,
      "کیا": 8194,
      "نتفلیکس": 8195,
      "یهودیتبار": 8196,
      "میزوری": 8197,
      "متقاعد": 8198,
      "قاچاق": 8199,
      "مالیاتی": 8200,
      "۵۳": 8201,
      "ملایم": 8202,
      "سوپ": 8203,
      "آریزونا": 8204,
      "بردند": 8205,
      "سفلی": 8206,
      "رقبا": 8207,
      "بتمن": 8208,
      "سختافزاری": 8209,
      "پروفسور": 8210,
      "محتویات": 8211,
      "عصب": 8212,
      "اصیل": 8213,
      "۱۳۹۱": 8214,
      "برپا": 8215,
      "وفادار": 8216,
      "بیلب": 8217,
      "نگرش": 8218,
      "عناوین": 8219,
      "تعلیق": 8220,
      "مصو": 8221,
      "عزیزان": 8222,
      "موسیقیدان": 8223,
      "پهنای": 8224,
      "جاسوسی": 8225,
      "کنتاکی": 8226,
      "تصحیح": 8227,
      "سیه": 8228,
      "اونجا": 8229,
      "آیر": 8230,
      "مدنظر": 8231,
      "صدایی": 8232,
      "دستمزد": 8233,
      "سبکهای": 8234,
      "سنا": 8235,
      "دادگستری": 8236,
      "نسخهٔ": 8237,
      "۱۹۳۷": 8238,
      "عاق": 8239,
      "بهشتی": 8240,
      "سادهترین": 8241,
      "استوار": 8242,
      "میگیرید": 8243,
      "استرالیایی": 8244,
      "اتاقهای": 8245,
      "متابولی": 8246,
      "لها": 8247,
      "ساعته": 8248,
      "برگر": 8249,
      "سیزده": 8250,
      "بنیانگذاران": 8251,
      "اردشیر": 8252,
      "ترشح": 8253,
      "گمشده": 8254,
      "نمیدهند": 8255,
      "لف": 8256,
      "وادار": 8257,
      "ترمیم": 8258,
      "مختصر": 8259,
      "گیمز": 8260,
      "۱۳۸۶": 8261,
      "اسپرت": 8262,
      "آلپ": 8263,
      "پیشرانه": 8264,
      "۹۳": 8265,
      "خلافت": 8266,
      "سکته": 8267,
      "الن": 8268,
      "قیمتها": 8269,
      "اورگن": 8270,
      "رایانههای": 8271,
      "شکستن": 8272,
      "موتو": 8273,
      "فریدون": 8274,
      "ماریا": 8275,
      "میگم": 8276,
      "شدنی": 8277,
      "ناسی": 8278,
      "باستانشناسی": 8279,
      "ژنتیک": 8280,
      "!!!": 8281,
      "هدست": 8282,
      "انته": 8283,
      "زدی": 8284,
      "نعمت": 8285,
      "هفتگی": 8286,
      "تألیف": 8287,
      "انداخته": 8288,
      "دیگهای": 8289,
      "قطره": 8290,
      "خودمخت": 8291,
      "۶۸": 8292,
      "راکت": 8293,
      "بورو": 8294,
      "قاه": 8295,
      "ورق": 8296,
      "کارآفرینی": 8297,
      "شایسته": 8298,
      "موضع": 8299,
      "شیان": 8300,
      "مستر": 8301,
      "گشتی": 8302,
      "کالای": 8303,
      "ئلا": 8304,
      "داوری": 8305,
      "ناف": 8306,
      "هایت": 8307,
      "بستههای": 8308,
      "گذراندن": 8309,
      "آهسته": 8310,
      "مرسد": 8311,
      "تولیدات": 8312,
      "امریکا": 8313,
      "کمکهای": 8314,
      "بدانند": 8315,
      "ببینم": 8316,
      "سبد": 8317,
      "دوستش": 8318,
      "اورد": 8319,
      "بوری": 8320,
      "بتن": 8321,
      "پوستان": 8322,
      "الماس": 8323,
      "ومی": 8324,
      "آموخت": 8325,
      "خلال": 8326,
      "ژور": 8327,
      "تحولات": 8328,
      "منتقد": 8329,
      "علائم": 8330,
      "گذاشتند": 8331,
      "ناخودآگاه": 8332,
      "بهمنظور": 8333,
      "ئول": 8334,
      "۴۰۰": 8335,
      "ایدی": 8336,
      "شعله": 8337,
      "محر": 8338,
      "صالح": 8339,
      "دوق": 8340,
      "ثالث": 8341,
      "تهاجم": 8342,
      "۱۹۳۴": 8343,
      "هرات": 8344,
      "بانو": 8345,
      "همسرتان": 8346,
      "الیزابت": 8347,
      "تیس": 8348,
      "بانه": 8349,
      "اینقدر": 8350,
      "کوروش": 8351,
      "انتظارات": 8352,
      "آتشفشان": 8353,
      "اطلاعی": 8354,
      "مخرب": 8355,
      "یادآور": 8356,
      "بدر": 8357,
      "تظاهرات": 8358,
      "جانبه": 8359,
      "دیروز": 8360,
      "مطبوعات": 8361,
      "فقیر": 8362,
      "مندان": 8363,
      "ساب": 8364,
      "انقراض": 8365,
      "تفاوتی": 8366,
      "فاصلهی": 8367,
      "بهانه": 8368,
      "اسیدهای": 8369,
      "متان": 8370,
      "تابه": 8371,
      "ماق": 8372,
      "شیا": 8373,
      "برداشتن": 8374,
      "موفقیتهای": 8375,
      "سپر": 8376,
      "میگویم": 8377,
      "مرسوم": 8378,
      "بکنید": 8379,
      "پاسداران": 8380,
      "۹۱": 8381,
      "نیکی": 8382,
      "غبار": 8383,
      "زدند": 8384,
      "گازی": 8385,
      "داشتید": 8386,
      "زغال": 8387,
      "سائو": 8388,
      "میدید": 8389,
      "ناامید": 8390,
      "دخترش": 8391,
      "ترجم": 8392,
      "انگور": 8393,
      "سرشناس": 8394,
      "سپاهی": 8395,
      "برداران": 8396,
      "رتبهبندی": 8397,
      "غیرفعال": 8398,
      "دیواری": 8399,
      "احتیاط": 8400,
      "بازنشسته": 8401,
      "تحلیلی": 8402,
      "شهرداریها": 8403,
      "پروژهی": 8404,
      "مناظر": 8405,
      "تنا": 8406,
      "انفرادی": 8407,
      "داور": 8408,
      "افشار": 8409,
      "سدیم": 8410,
      "موزههای": 8411,
      "هجوم": 8412,
      "بازمیگردد": 8413,
      "قلمروهای": 8414,
      "بدهیم": 8415,
      "دایم": 8416,
      "حوصله": 8417,
      "بشویید": 8418,
      "هارد": 8419,
      "مطالعهی": 8420,
      "مزه": 8421,
      "وینی": 8422,
      "غذاخوری": 8423,
      "۱۹۱۲": 8424,
      "نشوید": 8425,
      "کتیبه": 8426,
      "ترمز": 8427,
      "چیزها": 8428,
      "رقبای": 8429,
      "جادویی": 8430,
      "اصد": 8431,
      "رمزارز": 8432,
      "عواملی": 8433,
      "بحرین": 8434,
      "دقیقهای": 8435,
      "کاظم": 8436,
      "تویو": 8437,
      "قطعنامه": 8438,
      "اینرو": 8439,
      "ضلع": 8440,
      "عههای": 8441,
      "نمیکرد": 8442,
      "شتاین": 8443,
      "گویند": 8444,
      "روایات": 8445,
      "پایهٔ": 8446,
      "خات": 8447,
      "کویر": 8448,
      "بردارید": 8449,
      "میگفتند": 8450,
      "۷۸": 8451,
      "گرایانه": 8452,
      "وفر": 8453,
      "کریمی": 8454,
      "سالار": 8455,
      "میتونم": 8456,
      "دوستانش": 8457,
      "اختلافات": 8458,
      "اورش": 8459,
      "ِر": 8460,
      "اشتیاق": 8461,
      "سلفی": 8462,
      "بوستون": 8463,
      "افتادن": 8464,
      "انداختن": 8465,
      "ونزو": 8466,
      "پاسخگویی": 8467,
      "پیامک": 8468,
      "۹۴": 8469,
      "فقه": 8470,
      "ایالتها": 8471,
      "بهزودی": 8472,
      "جهش": 8473,
      "اسکان": 8474,
      "جونی": 8475,
      "مقدو": 8476,
      "اندرو": 8477,
      "گای": 8478,
      "قدس": 8479,
      "پوشیدن": 8480,
      "کاغذی": 8481,
      "شاهین": 8482,
      "دلا": 8483,
      "معن": 8484,
      "حوم": 8485,
      "خوراک": 8486,
      "۱۹۳۳": 8487,
      "احراز": 8488,
      "جونز": 8489,
      "آنتونی": 8490,
      "شنای": 8491,
      "سناتور": 8492,
      "مسافت": 8493,
      "بشری": 8494,
      "گچ": 8495,
      "تومور": 8496,
      "مصاحبهای": 8497,
      "فصلهای": 8498,
      "فهمیدم": 8499,
      "راسته": 8500,
      "۱۹۳۵": 8501,
      "بفرست": 8502,
      "سؤ": 8503,
      "ناهار": 8504,
      "مناطقی": 8505,
      "خانوادهها": 8506,
      "مسیولان": 8507,
      "اونا": 8508,
      "لوح": 8509,
      "سوئدی": 8510,
      "میخورند": 8511,
      "ندیده": 8512,
      "بابی": 8513,
      "مَ": 8514,
      "نخل": 8515,
      "باکیفیت": 8516,
      "رابین": 8517,
      "آنهاست": 8518,
      "ببر": 8519,
      "کومون": 8520,
      "شناور": 8521,
      "بوسنی": 8522,
      "نوزادان": 8523,
      "یانگ": 8524,
      "کاشان": 8525,
      "شمس": 8526,
      "حدودا": 8527,
      "الملک": 8528,
      "سنگینی": 8529,
      "اردوگاه": 8530,
      "وج": 8531,
      "خصوصا": 8532,
      "غیرممکن": 8533,
      "برگزید": 8534,
      "خانوادهای": 8535,
      "رانده": 8536,
      "جمعیتی": 8537,
      "بهرهگیری": 8538,
      "مزایا": 8539,
      "ویسکانسین": 8540,
      "انتظامی": 8541,
      "رابطهای": 8542,
      "دستورات": 8543,
      "قابلم": 8544,
      "نمیدانم": 8545,
      "تدا": 8546,
      "ایتان": 8547,
      "میبینند": 8548,
      "افسانهای": 8549,
      "قور": 8550,
      "بخورید": 8551,
      "سانت": 8552,
      "لنگ": 8553,
      "پلتفر": 8554,
      "طباطبایی": 8555,
      "بهوجود": 8556,
      "باین": 8557,
      "مشاهیر": 8558,
      "نامش": 8559,
      "دسک": 8560,
      "اتریوم": 8561,
      "اورشلیم": 8562,
      "چیک": 8563,
      "اروس": 8564,
      "گانهای": 8565,
      "تروریستی": 8566,
      "نیجریه": 8567,
      "سلاحهای": 8568,
      "جما": 8569,
      "اروگوئه": 8570,
      "خودرویی": 8571,
      "آیپد": 8572,
      "ارشاد": 8573,
      "مثلث": 8574,
      "سانتا": 8575,
      "غروب": 8576,
      "میدانم": 8577,
      "ژیمناستهای": 8578,
      "بمانند": 8579,
      "هفتهی": 8580,
      "مکس": 8581,
      "شرکتهایی": 8582,
      "کروز": 8583,
      "۱۳۹۹": 8584,
      "تقدیم": 8585,
      "جانسون": 8586,
      "نمایشهای": 8587,
      "تخل": 8588,
      "پشتیبان": 8589,
      "اکوسیستم": 8590,
      "کارفرما": 8591,
      "بسازد": 8592,
      "کوتای": 8593,
      "چهرهای": 8594,
      "میدانستند": 8595,
      "قشر": 8596,
      "کربوهیدرات": 8597,
      "نقطهای": 8598,
      "موردنظر": 8599,
      "میگیریم": 8600,
      "ویلا": 8601,
      "پدربزرگ": 8602,
      "کامپیوترهای": 8603,
      "هرمزگان": 8604,
      "ناچار": 8605,
      "تاکت": 8606,
      "مصری": 8607,
      "توش": 8608,
      "گلد": 8609,
      "میوهها": 8610,
      "میرسی": 8611,
      "پنجه": 8612,
      "نسون": 8613,
      "دریافتی": 8614,
      "بنویسم": 8615,
      "تنیسبازان": 8616,
      "ویروسی": 8617,
      "دستها": 8618,
      "طبیع": 8619,
      "رشتهٔ": 8620,
      "یص": 8621,
      "کیهان": 8622,
      "کسل": 8623,
      "اگون": 8624,
      "گلوب": 8625,
      "محاسباتی": 8626,
      "گیج": 8627,
      "۱۳۸۰": 8628,
      "منس": 8629,
      "پلان": 8630,
      "سلولها": 8631,
      "لیتری": 8632,
      "سیان": 8633,
      "زنبور": 8634,
      "سوژه": 8635,
      "تعبیر": 8636,
      "همسای": 8637,
      "هرم": 8638,
      "طبع": 8639,
      "ساخ": 8640,
      "دنیایی": 8641,
      "انار": 8642,
      "همسود": 8643,
      "دولتهای": 8644,
      "فروپاشی": 8645,
      "بعی": 8646,
      "دستکاری": 8647,
      "حرفی": 8648,
      "کیست": 8649,
      "نزدیکترین": 8650,
      "زرا": 8651,
      "پایگاههای": 8652,
      "اقلیم": 8653,
      "نسخهای": 8654,
      "احکام": 8655,
      "آرایشی": 8656,
      "تشریح": 8657,
      "انوردان": 8658,
      "زاکسن": 8659,
      "نهض": 8660,
      "فرامو": 8661,
      "میره": 8662,
      "ردام": 8663,
      "اشکانیان": 8664,
      "پسین": 8665,
      "نشانگر": 8666,
      "کریسمس": 8667,
      "ایدهآل": 8668,
      "کبو": 8669,
      "گشتاور": 8670,
      "منحنی": 8671,
      "سدههای": 8672,
      "بهعلاوه": 8673,
      "کلرادو": 8674,
      "اساسا": 8675,
      "کلاهما": 8676,
      "بافی": 8677,
      "رایت": 8678,
      "ناپدید": 8679,
      "کاندید": 8680,
      "نمیآید": 8681,
      "اکتشاف": 8682,
      "عینک": 8683,
      "میکو": 8684,
      "قیمتهای": 8685,
      "کلاسی": 8686,
      "دارال": 8687,
      "قرقی": 8688,
      "غلظت": 8689,
      "میشم": 8690,
      "آذربایجانی": 8691,
      "ارج": 8692,
      "دهکده": 8693,
      "ادویه": 8694,
      "وره": 8695,
      ".?": 8696,
      "آبیاری": 8697,
      "ساند": 8698,
      "عج": 8699,
      "سپی": 8700,
      "فرضیه": 8701,
      "استعفا": 8702,
      "قبایل": 8703,
      "کثی": 8704,
      "داراییهای": 8705,
      "خله": 8706,
      "خاکسپاریها": 8707,
      "ندا": 8708,
      "ناکی": 8709,
      "احیا": 8710,
      "شعاع": 8711,
      "اشتراکگذاری": 8712,
      "مشق": 8713,
      "موران": 8714,
      "قطعنامههای": 8715,
      "آرزوی": 8716,
      "تلفات": 8717,
      "تایم": 8718,
      "فالوور": 8719,
      "کشش": 8720,
      "ایری": 8721,
      "وارنر": 8722,
      "اصفهانی": 8723,
      "معماران": 8724,
      "مکعب": 8725,
      "فامی": 8726,
      "بحرانی": 8727,
      "تطبیق": 8728,
      "استفادهی": 8729,
      "صفحهای": 8730,
      "فرشته": 8731,
      "زمینهٔ": 8732,
      "حلق": 8733,
      "طلبی": 8734,
      "استایل": 8735,
      "کوپر": 8736,
      "بخرید": 8737,
      "طرفه": 8738,
      "۱۹۲۹": 8739,
      "شهروند": 8740,
      "زمینلرزه": 8741,
      "پذیرایی": 8742,
      "ماساژ": 8743,
      "گلها": 8744,
      "وفاداری": 8745,
      "دیدگاههای": 8746,
      "تجربههای": 8747,
      "آسیاب": 8748,
      "حشر": 8749,
      "وهان": 8750,
      "تابعیت": 8751,
      "۱۹۱۷": 8752,
      "سریعترین": 8753,
      "فرمود": 8754,
      "ابرو": 8755,
      "مسلط": 8756,
      "کتورهای": 8757,
      "هولو": 8758,
      "پژو": 8759,
      "مکال": 8760,
      "نمودن": 8761,
      "بگیر": 8762,
      "لیورپول": 8763,
      "مجدداً": 8764,
      "مانت": 8765,
      "تبعیض": 8766,
      "هزینهای": 8767,
      "الع": 8768,
      "چرو": 8769,
      "کاملشده": 8770,
      "موردی": 8771,
      "آلیاژ": 8772,
      "راهنما": 8773,
      "۱۹۳۱": 8774,
      "ثانی": 8775,
      "مقبره": 8776,
      "برهم": 8777,
      "محم": 8778,
      "تشی": 8779,
      "دولتها": 8780,
      "اسنپدر": 8781,
      "برگرد": 8782,
      "غزل": 8783,
      "تواند": 8784,
      "سایتی": 8785,
      "حکمت": 8786,
      "بزنم": 8787,
      "بهشدت": 8788,
      "ثبتنام": 8789,
      "۱۳۸۳": 8790,
      "سیدنی": 8791,
      "مخاطبین": 8792,
      "زاگر": 8793,
      "عکسی": 8794,
      "النه": 8795,
      "باخت": 8796,
      "رستورانهای": 8797,
      "مُ": 8798,
      "همهچیز": 8799,
      "دیسی": 8800,
      "اسنپدراگون": 8801,
      "فتگی": 8802,
      "ستارههای": 8803,
      "دوازدهم": 8804,
      "قراره": 8805,
      "نشدن": 8806,
      "مارکسی": 8807,
      "غیرد": 8808,
      "سردرد": 8809,
      "اپلیکیشنها": 8810,
      "متروی": 8811,
      "میدن": 8812,
      "تعلیم": 8813,
      "قوس": 8814,
      "شفافیت": 8815,
      "آمدهاند": 8816,
      "جمهوریخواه": 8817,
      "ناصرالدین": 8818,
      "بنویس": 8819,
      "باشن": 8820,
      "مبارزات": 8821,
      "بانوی": 8822,
      "پیشنها": 8823,
      "خاش": 8824,
      "فیزیکدانان": 8825,
      "میپذیرد": 8826,
      "اتان": 8827,
      "اُ": 8828,
      "تسکین": 8829,
      "جادهای": 8830,
      "بدیهی": 8831,
      "گله": 8832,
      "ترن": 8833,
      "شانزدهم": 8834,
      "ترمین": 8835,
      "آغازین": 8836,
      "لانگ": 8837,
      "چگالی": 8838,
      "اکثرا": 8839,
      "پردیس": 8840,
      "قامت": 8841,
      "بوجود": 8842,
      "جیلیگ": 8843,
      "فیفا": 8844,
      "راوی": 8845,
      "سعدی": 8846,
      "سخنگوی": 8847,
      "اختصار": 8848,
      "قراردادهای": 8849,
      "۵۱": 8850,
      "جامعهشناسی": 8851,
      "بلندترین": 8852,
      "طبیعتا": 8853,
      "تیمها": 8854,
      "فنون": 8855,
      "میسازند": 8856,
      "ستو": 8857,
      "آیات": 8858,
      "بنشی": 8859,
      "تایوان": 8860,
      "یاس": 8861,
      "بهرهمند": 8862,
      "نوکیا": 8863,
      "اگ": 8864,
      "مکالمه": 8865,
      "هیچکدام": 8866,
      "نارنجی": 8867,
      "وفق": 8868,
      "هوم": 8869,
      "خوشن": 8870,
      "ایدهها": 8871,
      "خامنهای": 8872,
      "حاد": 8873,
      "ناشناس": 8874,
      "منوچهر": 8875,
      "رازی": 8876,
      "گزارشها": 8877,
      "پارچ": 8878,
      "پاها": 8879,
      "درشت": 8880,
      "قوای": 8881,
      "ابتی": 8882,
      "دههی": 8883,
      "نگو": 8884,
      "اصولی": 8885,
      "ناتوانی": 8886,
      "مرکب": 8887,
      "انتقادی": 8888,
      "ابید": 8889,
      "تیرانداز": 8890,
      "درمانهای": 8891,
      "جلوههای": 8892,
      "معلو": 8893,
      "جسد": 8894,
      "گریز": 8895,
      "ثه": 8896,
      "میگر": 8897,
      "یحی": 8898,
      "بردی": 8899,
      "مایعات": 8900,
      "وسترن": 8901,
      "کومونه": 8902,
      "کوشش": 8903,
      "بیگانه": 8904,
      "صداپیشگان": 8905,
      "۱۹۱۴": 8906,
      "ایدهی": 8907,
      "تشکی": 8908,
      "اقدامی": 8909,
      "مینمود": 8910,
      "هشتمین": 8911,
      "حیر": 8912,
      "پروازی": 8913,
      "یوز": 8914,
      "میکشید": 8915,
      "لال": 8916,
      "نکتهای": 8917,
      "جزئیات": 8918,
      "خدایی": 8919,
      "سایبری": 8920,
      "گزاری": 8921,
      "کابینه": 8922,
      "نوشتم": 8923,
      "صحر": 8924,
      "مونا": 8925,
      "دستاوردهای": 8926,
      "۵۲": 8927,
      "صوت": 8928,
      "میاندازد": 8929,
      "حالتهای": 8930,
      "۱۹۰۸": 8931,
      "بهت": 8932,
      "عموماً": 8933,
      "عملکردی": 8934,
      "اتومبیلهای": 8935,
      "ونزوئلا": 8936,
      "معانی": 8937,
      "اضطر": 8938,
      "میتر": 8939,
      "نیام": 8940,
      "ذاتی": 8941,
      "ارباب": 8942,
      "بازده": 8943,
      "تورینگ": 8944,
      "طبر": 8945,
      "رقابتها": 8946,
      "اکلاهما": 8947,
      "ویرجینیای": 8948,
      "ابلا": 8949,
      "هضم": 8950,
      "اسمش": 8951,
      "نمیکنم": 8952,
      "شاگرد": 8953,
      "دانشنامه": 8954,
      "اسپور": 8955,
      "سؤال": 8956,
      "غرقشده": 8957,
      "مادران": 8958,
      "توالی": 8959,
      "اعلامی": 8960,
      "براش": 8961,
      "مزاح": 8962,
      "خانوادهی": 8963,
      "ورم": 8964,
      "خیریه": 8965,
      "رنگار": 8966,
      "برجست": 8967,
      "موث": 8968,
      "صمیمی": 8969,
      "دروازهبانان": 8970,
      "ذهنم": 8971,
      "مشکوک": 8972,
      "رسما": 8973,
      "مصدق": 8974,
      "توربو": 8975,
      "میگن": 8976,
      "معادن": 8977,
      "آلفا": 8978,
      "عزت": 8979,
      "بگو": 8980,
      "نمیرسد": 8981,
      "قفسه": 8982,
      "باورهای": 8983,
      "مکانیسم": 8984,
      "مراقبتهای": 8985,
      "نط": 8986,
      "ضربان": 8987,
      "کمدینهای": 8988,
      "۵۴": 8989,
      "زنش": 8990,
      "اوب": 8991,
      "پروسه": 8992,
      "لاسکا": 8993,
      "مکانیزم": 8994,
      "بیانگر": 8995,
      "سپه": 8996,
      "دیواره": 8997,
      "تضاد": 8998,
      "تکثیر": 8999,
      "جنسیتی": 9000,
      "پروازهای": 9001,
      "میتوانستند": 9002,
      "احاط": 9003,
      "باگ": 9004,
      "مینمایند": 9005,
      "ماهر": 9006,
      "واژههای": 9007,
      "تراشهی": 9008,
      "محاکمه": 9009,
      "معنایی": 9010,
      "آقایان": 9011,
      "۱۲۰": 9012,
      "حاکمان": 9013,
      "فستی": 9014,
      "میکشند": 9015,
      "میسیسی": 9016,
      "آین": 9017,
      "گرسنگی": 9018,
      "طبقات": 9019,
      "اصولا": 9020,
      "مخابرات": 9021,
      "برویم": 9022,
      "واگن": 9023,
      "گوارش": 9024,
      "حجاب": 9025,
      "نشوند": 9026,
      "بروس": 9027,
      "دوس": 9028,
      "آستین": 9029,
      "بقایای": 9030,
      "هتلهای": 9031,
      "متأ": 9032,
      "جهاد": 9033,
      "بازدهی": 9034,
      "بیلبورد": 9035,
      "لزوما": 9036,
      "ایزد": 9037,
      "ونیز": 9038,
      "یادبود": 9039,
      "لایک": 9040,
      "فف": 9041,
      "جراح": 9042,
      "مرتک": 9043,
      "رویال": 9044,
      "کمپی": 9045,
      "تمدید": 9046,
      "احوال": 9047,
      "۱۹۰۰": 9048,
      "دوچرخهسوار": 9049,
      "میسیسیپی": 9050,
      "تانک": 9051,
      "۱۹۱۰": 9052,
      "واک": 9053,
      "ژنی": 9054,
      "بلندمدت": 9055,
      "وسیلهی": 9056,
      "متعهد": 9057,
      "پیشرانهی": 9058,
      "عمران": 9059,
      "میدم": 9060,
      "جواه": 9061,
      "اچاماس": 9062,
      "مکه": 9063,
      "بازیهایی": 9064,
      "وییه": 9065,
      "وکار": 9066,
      "فرمانروایی": 9067,
      "بجای": 9068,
      "رکور": 9069,
      "شانی": 9070,
      "فرقی": 9071,
      "مچ": 9072,
      "صبا": 9073,
      "الس": 9074,
      "ساعتهای": 9075,
      "بزنیم": 9076,
      "کومونههای": 9077,
      "کریستی": 9078,
      "نامهها": 9079,
      "طالبان": 9080,
      "سقط": 9081,
      "اراک": 9082,
      "نشدهاند": 9083,
      "باکتریها": 9084,
      "تلسکوپ": 9085,
      "بهتون": 9086,
      "خالق": 9087,
      "مدینه": 9088,
      "بهتره": 9089,
      "نمادهای": 9090,
      "آلومینیوم": 9091,
      "پترو": 9092,
      "تشن": 9093,
      "هرا": 9094,
      "بازنشستگی": 9095,
      "پک": 9096,
      "نهضت": 9097,
      "داکوتای": 9098,
      "زادگاه": 9099,
      "ابریشم": 9100,
      "نقشآفرینی": 9101,
      "خجال": 9102,
      "بطری": 9103,
      "بغل": 9104,
      "۸۴": 9105,
      "۱۳۸۲": 9106,
      "الزام": 9107,
      "ریا": 9108,
      "سرکه": 9109,
      "لیستی": 9110,
      "طلو": 9111,
      "اندیس": 9112,
      "نیس": 9113,
      "کمکم": 9114,
      "خبرنگار": 9115,
      "فهرستی": 9116,
      "اسنپ": 9117,
      "شهردار": 9118,
      "ماتریس": 9119,
      "تشکیلات": 9120,
      "سیستمها": 9121,
      "سیمرغ": 9122,
      "میشوم": 9123,
      "وقفه": 9124,
      "میخواستم": 9125,
      "ارقام": 9126,
      "گزیده": 9127,
      "دویست": 9128,
      "احب": 9129,
      "جمال": 9130,
      "محال": 9131,
      "استراتژیهای": 9132,
      "رحیم": 9133,
      "سالگرد": 9134,
      "تراژ": 9135,
      "پایهی": 9136,
      "لرز": 9137,
      "ریاستجمهوری": 9138,
      "درنگ": 9139,
      "مستمر": 9140,
      "پیراهن": 9141,
      "گوشهای": 9142,
      "مانیتور": 9143,
      "کالاها": 9144,
      "شاسی": 9145,
      "لینکهای": 9146,
      "ارزانتر": 9147,
      "اطرافیان": 9148,
      "رند": 9149,
      "وزیری": 9150,
      "۶۱": 9151,
      "سنتز": 9152,
      "درایو": 9153,
      "مساف": 9154,
      "درآمدی": 9155,
      "خواستههای": 9156,
      "رادیکال": 9157,
      "درکنار": 9158,
      "تخصیص": 9159,
      "تاریخنگاران": 9160,
      "پنجشنبه": 9161,
      "گرگان": 9162,
      "یاران": 9163,
      "دهههای": 9164,
      "تناسلی": 9165,
      "سازههای": 9166,
      "دفاتر": 9167,
      "چشمی": 9168,
      "سیزدهم": 9169,
      "تحرک": 9170,
      "احاطه": 9171,
      "مایید": 9172,
      "زمانبندی": 9173,
      "تهویه": 9174,
      "کانو": 9175,
      "روشنی": 9176,
      "ویلیامز": 9177,
      "توق": 9178,
      "الیاف": 9179,
      "ناوگان": 9180,
      "ترجمهٔ": 9181,
      "تحمیل": 9182,
      "منطقهی": 9183,
      "زرتشت": 9184,
      "تیغ": 9185,
      "روانشناس": 9186,
      "بیچ": 9187,
      "حوا": 9188,
      "گفتهاند": 9189,
      "پلیمر": 9190,
      "پدری": 9191,
      "مادربزرگ": 9192,
      "تکمیلی": 9193,
      "حماس": 9194,
      "کوپا": 9195,
      "طناب": 9196,
      "نباشند": 9197,
      "تنگه": 9198,
      "نوشتار": 9199,
      "میگوییم": 9200,
      "داماد": 9201,
      "کنستان": 9202,
      "آلاسکا": 9203,
      "بایت": 9204,
      "تصاحب": 9205,
      "هیپ": 9206,
      "شمع": 9207,
      "ائتلا": 9208,
      "طبری": 9209,
      "سرهنگ": 9210,
      "۱۹۲۱": 9211,
      "قرنط": 9212,
      "ولوژیک": 9213,
      "کاسه": 9214,
      "ظمی": 9215,
      "خاتمه": 9216,
      "یحیی": 9217,
      "کاربرانی": 9218,
      "شکو": 9219,
      "زرهی": 9220,
      "فیدی": 9221,
      "صخر": 9222,
      "ناخواسته": 9223,
      "آموزی": 9224,
      "مرسدس": 9225,
      "تقی": 9226,
      "اشتباهی": 9227,
      "فروشندگان": 9228,
      "اقبال": 9229,
      "توریستی": 9230,
      "َر": 9231,
      "ردن": 9232,
      "برایان": 9233,
      "مشتق": 9234,
      "نهنگ": 9235,
      "انحراف": 9236,
      "ویکیپدیا": 9237,
      "سمنان": 9238,
      "کامپ": 9239,
      "چرم": 9240,
      "مختر": 9241,
      "زیرساختهای": 9242,
      "پیامدهای": 9243,
      "کواندو": 9244,
      "مرتفع": 9245,
      "جبر": 9246,
      "بعدش": 9247,
      "مسن": 9248,
      "اسپورت": 9249,
      "شیمیدان": 9250,
      "بودایی": 9251,
      "جوزف": 9252,
      "جغرافیا": 9253,
      "زیانا": 9254,
      "کامرون": 9255,
      "ذوق": 9256,
      "کیبورد": 9257,
      "سرنگ": 9258,
      "نهاده": 9259,
      "وص": 9260,
      "بخشها": 9261,
      "تردد": 9262,
      "خانهٔ": 9263,
      "رایجترین": 9264,
      "مرتکب": 9265,
      "تقریبی": 9266,
      "همایون": 9267,
      "مبانی": 9268,
      "موضعی": 9269,
      "میلیمتری": 9270,
      "والتر": 9271,
      "اهمیتی": 9272,
      "ومه": 9273,
      "مخفف": 9274,
      "موبای": 9275,
      "اصالت": 9276,
      "خانوادهٔ": 9277,
      "نکن": 9278,
      "انگشتان": 9279,
      "معناست": 9280,
      "روانشناختی": 9281,
      "فمی": 9282,
      "آتن": 9283,
      "کنندهها": 9284,
      "اوش": 9285,
      "دیجی": 9286,
      "اسل": 9287,
      "گرمسیری": 9288,
      "نامشخص": 9289,
      "پارت": 9290,
      "بلوار": 9291,
      "باغهای": 9292,
      "پلاک": 9293,
      "تروریسم": 9294,
      "میزی": 9295,
      "تکواندو": 9296,
      "چنانکه": 9297,
      "فستیوال": 9298,
      "آنزیم": 9299,
      "دیک": 9300,
      "سرورهای": 9301,
      "خداحافظی": 9302,
      "لمسی": 9303,
      "اطلاق": 9304,
      "مداری": 9305,
      "مکزیکو": 9306,
      "درگیریهای": 9307,
      "شبکهای": 9308,
      "محوط": 9309,
      "لئون": 9310,
      "مسلما": 9311,
      "طالب": 9312,
      "کمونهای": 9313,
      "رابی": 9314,
      "مراد": 9315,
      "سولی": 9316,
      "گونهها": 9317,
      "ساعتها": 9318,
      "توهین": 9319,
      "دستگاهی": 9320,
      "پردازشی": 9321,
      "شبها": 9322,
      "ولد": 9323,
      "کلامی": 9324,
      "عباد": 9325,
      "مقرون": 9326,
      "آلبر": 9327,
      "گازهای": 9328,
      "هدفی": 9329,
      "مجسم": 9330,
      "سوق": 9331,
      "ماموریت": 9332,
      "نماند": 9333,
      "ثیرگذار": 9334,
      "فرزندش": 9335,
      "سلیمانی": 9336,
      "بداند": 9337,
      "حسابهای": 9338,
      "هوشمندانه": 9339,
      "قاعدگی": 9340,
      "میشل": 9341,
      "سوغ": 9342,
      "آشوری": 9343,
      "پدیدار": 9344,
      "کومو": 9345,
      "نوم": 9346,
      "مبد": 9347,
      "انتاریو": 9348,
      "گرند": 9349,
      "کنفدراسیون": 9350,
      "آتشسوزی": 9351,
      "بکند": 9352,
      "بیانیهای": 9353,
      "سهماه": 9354,
      "تسو": 9355,
      "پشی": 9356,
      "تندیس": 9357,
      "تیت": 9358,
      "آوردهاند": 9359,
      "ویراست": 9360,
      "احترا": 9361,
      "نیوم": 9362,
      "استعمار": 9363,
      "بیزانس": 9364,
      "نرسیده": 9365,
      "میکرده": 9366,
      "فایلها": 9367,
      "بوش": 9368,
      "رنو": 9369,
      "قبولی": 9370,
      "آلبرت": 9371,
      "موقعیتی": 9372,
      "نشاندهنده": 9373,
      "جیمی": 9374,
      "متقاضیان": 9375,
      "میفرست": 9376,
      "کمدیدرام": 9377,
      "خه": 9378,
      "مباد": 9379,
      "لهجه": 9380,
      "پتاسیم": 9381,
      "خوشحالی": 9382,
      "میمون": 9383,
      "گفتنی": 9384,
      "ذرت": 9385,
      "شیء": 9386,
      "طرحی": 9387,
      "جیب": 9388,
      "شدهٔ": 9389,
      "....": 9390,
      "آبادان": 9391,
      "نقرهای": 9392,
      "استه": 9393,
      "هرحال": 9394,
      "۱۹۲۵": 9395,
      "علمیه": 9396,
      "استیل": 9397,
      "دسکتاپ": 9398,
      "موادی": 9399,
      "فضاپیما": 9400,
      "بسط": 9401,
      "معصو": 9402,
      "روید": 9403,
      "پایش": 9404,
      "میخواد": 9405,
      "اسلواکی": 9406,
      "چکس": 9407,
      "نورث": 9408,
      "عاج": 9409,
      "موظ": 9410,
      "ژر": 9411,
      "نوشیدنیهای": 9412,
      "۱۹۲۲": 9413,
      "مادهای": 9414,
      "داوود": 9415,
      "نمیدونم": 9416,
      "اعلان": 9417,
      "یافتههای": 9418,
      "حیوانی": 9419,
      "مرج": 9420,
      "هندسه": 9421,
      "سالت": 9422,
      "ویول": 9423,
      "کوئین": 9424,
      "پراگ": 9425,
      "فراخوانی": 9426,
      "ودو": 9427,
      "اضطراری": 9428,
      "ترکیبهای": 9429,
      "مبلغی": 9430,
      "بنت": 9431,
      "خدمه": 9432,
      "لوژی": 9433,
      "نیکل": 9434,
      "بوکسورهای": 9435,
      "شاء": 9436,
      "آزمایشگاهی": 9437,
      "برسانند": 9438,
      "گاهرت": 9439,
      "کرن": 9440,
      "اونی": 9441,
      "ادم": 9442,
      "مقاصد": 9443,
      "همبستگی": 9444,
      "هشتگ": 9445,
      "سانسور": 9446,
      "تونل": 9447,
      "فریلن": 9448,
      "رابطهی": 9449,
      "۷۲": 9450,
      "برخاست": 9451,
      "فست": 9452,
      "دزد": 9453,
      "رسوم": 9454,
      "برگردان": 9455,
      "تنه": 9456,
      "۱۹۲۷": 9457,
      "بیاورند": 9458,
      "آرکانزاس": 9459,
      "زبورگ": 9460,
      "ستارهای": 9461,
      "میلر": 9462,
      "ایسلند": 9463,
      "اینی": 9464,
      "محترم": 9465,
      "کسو": 9466,
      "ساختند": 9467,
      "فایده": 9468,
      "پروژهها": 9469,
      "تویوتا": 9470,
      "سربازی": 9471,
      "زیستگاه": 9472,
      "لرد": 9473,
      "اهم": 9474,
      "راجر": 9475,
      "میگیره": 9476,
      "سانفرانسیسکو": 9477,
      "اساطیر": 9478,
      "مییابند": 9479,
      "کراس": 9480,
      "نهمین": 9481,
      "شوالیه": 9482,
      "ئید": 9483,
      "سیدی": 9484,
      "نتوان": 9485,
      "نمیتوانیم": 9486,
      "استارتاپها": 9487,
      "میوههای": 9488,
      "ماجراهای": 9489,
      "دستمال": 9490,
      "عبارات": 9491,
      "ممت": 9492,
      "توکن": 9493,
      "عکاسان": 9494,
      "نقطهی": 9495,
      "آغوش": 9496,
      "حفاری": 9497,
      "مجاورت": 9498,
      "زمینشناسی": 9499,
      "آبو": 9500,
      "نرمال": 9501,
      "۱۳۷۹": 9502,
      "آغازشده": 9503,
      "بافتهای": 9504,
      "مرحلهای": 9505,
      "قن": 9506,
      "گوسفند": 9507,
      "کنوان": 9508,
      "فورا": 9509,
      "نیوتن": 9510,
      "دردی": 9511,
      "معلول": 9512,
      "سالاد": 9513,
      "زعفران": 9514,
      "لانه": 9515,
      "۱۹۱۵": 9516,
      "جایش": 9517,
      "ملو": 9518,
      "مطالبی": 9519,
      "سکونتگاه": 9520,
      "حالله": 9521,
      "نقشههای": 9522,
      "رشتهای": 9523,
      "نظریههای": 9524,
      "رنگارنگ": 9525,
      "نسا": 9526,
      "امکاناتی": 9527,
      "هیجانانگیز": 9528,
      "مشاوران": 9529,
      "ممنوعیت": 9530,
      "میبینم": 9531,
      "صومع": 9532,
      "ارها": 9533,
      "اصطلاحا": 9534,
      "ریشههای": 9535,
      "نشریات": 9536,
      "رپ": 9537,
      "بعید": 9538,
      "دورانهای": 9539,
      "فیزیکدان": 9540,
      "پائ": 9541,
      "پاهای": 9542,
      "۱۳۷۰": 9543,
      "نژادی": 9544,
      "۱۹۲۳": 9545,
      "تراشههای": 9546,
      "مبارز": 9547,
      "بیکاری": 9548,
      "دفعه": 9549,
      "اشعه": 9550,
      "پورنو": 9551,
      "تسلی": 9552,
      "حشره": 9553,
      "درختی": 9554,
      "کرومو": 9555,
      "گذاشتم": 9556,
      "مبادله": 9557,
      "اقیانوسی": 9558,
      "ادها": 9559,
      "عضوی": 9560,
      "ژل": 9561,
      "انگیزی": 9562,
      "رمانه": 9563,
      "راغ": 9564,
      "سانان": 9565,
      "مرگش": 9566,
      "۶۳": 9567,
      "ملحق": 9568,
      "اطلاعرسانی": 9569,
      "قرقیزستان": 9570,
      "نفی": 9571,
      "بفهم": 9572,
      "کنوانسیون": 9573,
      "گفتههای": 9574,
      "وقتها": 9575,
      "متعادل": 9576,
      "دیپلمات": 9577,
      "هندسی": 9578,
      "لبنی": 9579,
      "سهگانه": 9580,
      "سینی": 9581,
      "منشی": 9582,
      "۱۳۸۱": 9583,
      "اسدی": 9584,
      "کلاین": 9585,
      "فقدان": 9586,
      "مخابراتی": 9587,
      "رفسن": 9588,
      "ربندی": 9589,
      "خوارز": 9590,
      "پارکینگ": 9591,
      "تهاجمی": 9592,
      "اومده": 9593,
      "خلوت": 9594,
      "مسیولی": 9595,
      "پراکند": 9596,
      "رنس": 9597,
      "عبری": 9598,
      "ژنهای": 9599,
      "بخشیدن": 9600,
      "مردگان": 9601,
      "غارت": 9602,
      "دات": 9603,
      "نبردهای": 9604,
      "خودمختار": 9605,
      "دمی": 9606,
      "پسری": 9607,
      "سالیانه": 9608,
      "دوزی": 9609,
      "اوس": 9610,
      "ونیا": 9611,
      "شهاب": 9612,
      "فوکوس": 9613,
      "الفبای": 9614,
      "کارگری": 9615,
      "روشنفکر": 9616,
      "مطابقت": 9617,
      "رفه": 9618,
      "هدفون": 9619,
      "واژن": 9620,
      "تعویق": 9621,
      "۸۳": 9622,
      "ناپل": 9623,
      "غیررسمی": 9624,
      "لایو": 9625,
      "بهکارگیری": 9626,
      "گرانی": 9627,
      "کریستین": 9628,
      "دغدغه": 9629,
      "مطلو": 9630,
      "ترانهای": 9631,
      "زنها": 9632,
      "ژوییه": 9633,
      "شکوه": 9634,
      "تهو": 9635,
      "نمونهی": 9636,
      "منیزیم": 9637,
      "چکسلواکی": 9638,
      "تراپی": 9639,
      "چراغهای": 9640,
      "مارکی": 9641,
      "قانع": 9642,
      "گفتوگو": 9643,
      "ارمنیتبار": 9644,
      "جند": 9645,
      "باک": 9646,
      "بیض": 9647,
      "کنندهٔ": 9648,
      "گواهینامه": 9649,
      "۱۹۲۶": 9650,
      "گرفتیم": 9651,
      "دستم": 9652,
      "معتدل": 9653,
      "تضعیف": 9654,
      "احیای": 9655,
      "شتین": 9656,
      "تصدی": 9657,
      "پوستر": 9658,
      "مداخله": 9659,
      "اسلوونی": 9660,
      "دپ": 9661,
      "یافتهاند": 9662,
      "۶۲": 9663,
      "روا": 9664,
      "وئل": 9665,
      "بلاروس": 9666,
      "زاوی": 9667,
      "روایتی": 9668,
      "اجسام": 9669,
      "هارت": 9670,
      "علایق": 9671,
      "دهستانهای": 9672,
      "زندگان": 9673,
      "تجسم": 9674,
      "عفونتهای": 9675,
      "لوئیزیانا": 9676,
      "مقرر": 9677,
      "جعلی": 9678,
      "دانا": 9679,
      "داستانها": 9680,
      "۷۴": 9681,
      "چشمهای": 9682,
      "مجلات": 9683,
      "جستوجو": 9684,
      "بهبودی": 9685,
      "بپردازیم": 9686,
      "گشود": 9687,
      "متا": 9688,
      "ارتان": 9689,
      "استری": 9690,
      "جنگنده": 9691,
      "سودان": 9692,
      "جماعت": 9693,
      "ارواح": 9694,
      "احمق": 9695,
      "فرن": 9696,
      "احسان": 9697,
      "شکلهای": 9698,
      "اقلیمی": 9699,
[...]
